{
  "version": "1.0",
  "truncation": null,
  "padding": null,
  "added_tokens": [
    {
      "id": 0,
      "content": "[UNK]",
      "single_word": false,
      "lstrip": false,
      "rstrip": false,
      "normalized": false,
      "special": true
    },
    {
      "id": 1,
      "content": "[CLS]",
      "single_word": false,
      "lstrip": false,
      "rstrip": false,
      "normalized": false,
      "special": true
    },
    {
      "id": 2,
      "content": "[SEP]",
      "single_word": false,
      "lstrip": false,
      "rstrip": false,
      "normalized": false,
      "special": true
    },
    {
      "id": 3,
      "content": "[PAD]",
      "single_word": false,
      "lstrip": false,
      "rstrip": false,
      "normalized": false,
      "special": true
    },
    {
      "id": 4,
      "content": "[MASK]",
      "single_word": false,
      "lstrip": false,
      "rstrip": false,
      "normalized": false,
      "special": true
    }
  ],
  "normalizer": null,
  "pre_tokenizer": {
    "type": "ByteLevel",
    "add_prefix_space": true,
    "trim_offsets": true,
    "use_regex": true
  },
  "post_processor": null,
  "decoder": {
    "type": "BPEDecoder",
    "suffix": "</w>"
  },
  "model": {
    "type": "BPE",
    "dropout": null,
    "unk_token": null,
    "continuing_subword_prefix": null,
    "end_of_word_suffix": null,
    "fuse_unk": false,
    "byte_fallback": false,
    "ignore_merges": false,
    "vocab": {
      "[UNK]": 0,
      "[CLS]": 1,
      "[SEP]": 2,
      "[PAD]": 3,
      "[MASK]": 4,
      "!": 5,
      "\"": 6,
      "'": 7,
      "(": 8,
      ")": 9,
      "*": 10,
      ",": 11,
      "-": 12,
      ".": 13,
      "0": 14,
      "1": 15,
      "2": 16,
      "3": 17,
      "4": 18,
      "5": 19,
      "6": 20,
      "8": 21,
      "9": 22,
      ":": 23,
      ";": 24,
      "=": 25,
      "?": 26,
      "@": 27,
      "A": 28,
      "B": 29,
      "C": 30,
      "D": 31,
      "E": 32,
      "F": 33,
      "G": 34,
      "H": 35,
      "I": 36,
      "J": 37,
      "K": 38,
      "L": 39,
      "M": 40,
      "N": 41,
      "O": 42,
      "P": 43,
      "Q": 44,
      "R": 45,
      "S": 46,
      "T": 47,
      "U": 48,
      "V": 49,
      "W": 50,
      "X": 51,
      "Y": 52,
      "Z": 53,
      "[": 54,
      "]": 55,
      "_": 56,
      "`": 57,
      "a": 58,
      "b": 59,
      "c": 60,
      "d": 61,
      "e": 62,
      "f": 63,
      "g": 64,
      "h": 65,
      "i": 66,
      "j": 67,
      "k": 68,
      "l": 69,
      "m": 70,
      "n": 71,
      "o": 72,
      "p": 73,
      "q": 74,
      "r": 75,
      "s": 76,
      "t": 77,
      "u": 78,
      "v": 79,
      "w": 80,
      "x": 81,
      "y": 82,
      "z": 83,
      "Ċ": 84,
      "Ġ": 85,
      "Ġt": 86,
      "he": 87,
      "Ġa": 88,
      "Ġs": 89,
      "in": 90,
      "Ġthe": 91,
      "ĠĠ": 92,
      "Ġw": 93,
      "ou": 94,
      "it": 95,
      "Ġo": 96,
      "nd": 97,
      "er": 98,
      "Ġ`": 99,
      "ha": 100,
      "ing": 101,
      "re": 102,
      "Ġb": 103,
      "ĠĊ": 104,
      "Ġto": 105,
      "ed": 106,
      "Ġc": 107,
      "ĠĠĠĠ": 108,
      "Ġand": 109,
      "Ġm": 110,
      "Ġl": 111,
      "id": 112,
      "en": 113,
      "Ġd": 114,
      "ll": 115,
      "Ġf": 116,
      "ce": 117,
      "Ġhe": 118,
      "Ġsa": 119,
      "on": 120,
      "Ġof": 121,
      "Ġit": 122,
      "as": 123,
      "is": 124,
      "ow": 125,
      "ĠA": 126,
      "ar": 127,
      "Ġg": 128,
      "Ġn": 129,
      "Ġshe": 130,
      "le": 131,
      "or": 132,
      "Ġin": 133,
      "ice": 134,
      "Ġsaid": 135,
      "at": 136,
      "Ġbe": 137,
      "Ġy": 138,
      "hat": 139,
      "Ġp": 140,
      "se": 141,
      "Ġha": 142,
      "Ġth": 143,
      "Ġyou": 144,
      "ĠI": 145,
      ",'": 146,
      "lice": 147,
      "ĠAlice": 148,
      "ly": 149,
      "an": 150,
      "Ġwas": 151,
      "ot": 152,
      "Ġon": 153,
      "es": 154,
      "ver": 155,
      "Ġher": 156,
      "me": 157,
      "Ġh": 158,
      "ld": 159,
      "ut": 160,
      "gh": 161,
      "Ġe": 162,
      "Ġas": 163,
      "!'": 164,
      "st": 165,
      "ĠT": 166,
      "Ġthat": 167,
      "out": 168,
      "--": 169,
      "oo": 170,
      "ch": 171,
      "ur": 172,
      "Ġso": 173,
      "Ġu": 174,
      "ent": 175,
      "Ġr": 176,
      "et": 177,
      "ĠĠĠĠĠĠĠĠ": 178,
      "ght": 179,
      "ve": 180,
      "'t": 181,
      "ould": 182,
      "Ġwit": 183,
      "Ġat": 184,
      "ter": 185,
      "ke": 186,
      "tle": 187,
      "ad": 188,
      "Ġwith": 189,
      "Ġre": 190,
      "'s": 191,
      ".'": 192,
      "ay": 193,
      "Ġan": 194,
      "Ġhad": 195,
      "ir": 196,
      "ee": 197,
      "ck": 198,
      "Ġnot": 199,
      "ĠM": 200,
      "Ġall": 201,
      "ĠH": 202,
      "Ġwh": 203,
      "very": 204,
      "?'": 205,
      "Ġk": 206,
      "her": 207,
      "ri": 208,
      "Ġfor": 209,
      "ook": 210,
      "lf": 211,
      "ea": 212,
      "if": 213,
      "im": 214,
      "ain": 215,
      "Ġdo": 216,
      "ĠD": 217,
      "ĠThe": 218,
      "ill": 219,
      "Ġup": 220,
      "Ġvery": 221,
      "ittle": 222,
      "Ġkn": 223,
      "qu": 224,
      "Ġlittle": 225,
      "own": 226,
      "ry": 227,
      "Ġthey": 228,
      "Ġne": 229,
      "Ġsu": 230,
      "self": 231,
      "ĠS": 232,
      "Ġout": 233,
      "Ġsh": 234,
      "al": 235,
      "ell": 236,
      "Ġli": 237,
      "ge": 238,
      "Ġbut": 239,
      "pp": 240,
      "Ġthis": 241,
      "ro": 242,
      "ion": 243,
      "ab": 244,
      "Ġj": 245,
      "Ġmu": 246,
      "Ġsee": 247,
      "Ġis": 248,
      "ouse": 249,
      "and": 250,
      "Ġqu": 251,
      "Ġst": 252,
      "Ġme": 253,
      "Ġlook": 254,
      "ĠW": 255,
      "Ġab": 256,
      "ĠĠĠ": 257,
      "Ġmo": 258,
      "Ġbeg": 259,
      "Ġhis": 260,
      "ĠC": 261,
      "ite": 262,
      "Ġdown": 263,
      "ound": 264,
      "een": 265,
      "ere": 266,
      "ight": 267,
      "Ġag": 268,
      "ought": 269,
      "hing": 270,
      "hen": 271,
      "Ġca": 272,
      "our": 273,
      "Ġknow": 274,
      "Ġabout": 275,
      "ss": 276,
      "Ġone": 277,
      "Ġwhat": 278,
      "Ġagain": 279,
      "to": 280,
      "ink": 281,
      "Ġthem": 282,
      "ard": 283,
      "Ġgo": 284,
      "Ġlike": 285,
      "Ġwere": 286,
      "Ġno": 287,
      "ĠQ": 288,
      "Ġwent": 289,
      "Ġherself": 290,
      "Ġwould": 291,
      "Ġcould": 292,
      "ock": 293,
      "Ġoff": 294,
      "Ġthought": 295,
      "ĠQu": 296,
      "Ġor": 297,
      "Ġthing": 298,
      "Ġsome": 299,
      "Ġti": 300,
      "Ġgr": 301,
      "ear": 302,
      "ting": 303,
      "Ġv": 304,
      "ĠQueen": 305,
      "ong": 306,
      "ĠK": 307,
      "Ġdid": 308,
      "Ġhave": 309,
      "Ġthen": 310,
      "ind": 311,
      "ct": 312,
      "Ġif": 313,
      "Ġsay": 314,
      "atter": 315,
      "ther": 316,
      "all": 317,
      "ast": 318,
      "han": 319,
      "ort": 320,
      "Ġinto": 321,
      "che": 322,
      "Ġwhen": 323,
      "ers": 324,
      "Ġget": 325,
      "ome": 326,
      "ust": 327,
      "Ġyour": 328,
      "Ġtime": 329,
      "Ġthere": 330,
      "Ġdon": 331,
      "Ġex": 332,
      "Ġwho": 333,
      "ul": 334,
      "ĠG": 335,
      "il": 336,
      "un": 337,
      "reat": 338,
      "ĠKing": 339,
      "Ġmy": 340,
      "urtle": 341,
      "ne": 342,
      "Ġ*": 343,
      "Ġsp": 344,
      "Ġthink": 345,
      "ous": 346,
      "nder": 347,
      "Ġcan": 348,
      "Ġhead": 349,
      "ant": 350,
      "Ġwhi": 351,
      "ried": 352,
      "king": 353,
      "li": 354,
      "ĠĠĠĠĠĠ": 355,
      "ĠTurtle": 356,
      "Ġbegan": 357,
      "'m": 358,
      "am": 359,
      "ked": 360,
      "ph": 361,
      "Ġ(": 362,
      "Ġany": 363,
      "'ll": 364,
      "Ġtw": 365,
      "Ġcon": 366,
      "Ġits": 367,
      "ĠMock": 368,
      "ĠHatter": 369,
      "ryph": 370,
      "ĠGryph": 371,
      "ĠGryphon": 372,
      "ake": 373,
      "ling": 374,
      "mb": 375,
      "Ġaf": 376,
      "Ġwor": 377,
      "Ġway": 378,
      "Ġby": 379,
      "est": 380,
      "Ġfe": 381,
      "Ġrep": 382,
      "Ġmuch": 383,
      "Ġquite": 384,
      "ĠCat": 385,
      "oice": 386,
      "thing": 387,
      "us": 388,
      "ĠB": 389,
      "ĠR": 390,
      "Ġch": 391,
      "You": 392,
      "bit": 393,
      "ĠF": 394,
      "Ġtheir": 395,
      "Ġother": 396,
      "irst": 397,
      "abbit": 398,
      "ning": 399,
      "ose": 400,
      "ure": 401,
      "ish": 402,
      "ĠĠĠĠĠĠĠĠĠĠĠĠĠĠĠĠ": 403,
      "Ġvoice": 404,
      "dd": 405,
      "ig": 406,
      "Ġal": 407,
      "ĠAnd": 408,
      "Ġnow": 409,
      "ore": 410,
      "Ġtoo": 411,
      "ack": 412,
      "ra": 413,
      "Ġ\"": 414,
      "Ġcour": 415,
      "Ġpo": 416,
      "ess": 417,
      "Ġhow": 418,
      "--'": 419,
      "Ġmore": 420,
      "ough": 421,
      "are": 422,
      "ious": 423,
      "Ġsha": 424,
      "ree": 425,
      "Ġgot": 426,
      "Ġhim": 427,
      "ood": 428,
      "ĠDu": 429,
      "Ġlooked": 430,
      "ĠRabbit": 431,
      "The": 432,
      "way": 433,
      "ĠL": 434,
      "Ġmad": 435,
      "Ġfirst": 436,
      "Ġonly": 437,
      "Ġjust": 438,
      "Ġmust": 439,
      "'ve": 440,
      "ec": 441,
      "orm": 442,
      "ĠWh": 443,
      "It": 444,
      "led": 445,
      "Ġover": 446,
      "Ġlar": 447,
      "Ġnever": 448,
      "chess": 449,
      "ĠDuchess": 450,
      "ment": 451,
      "Ġare": 452,
      "art": 453,
      "Ġround": 454,
      "od": 455,
      "ven": 456,
      "ĠP": 457,
      "Ġtur": 458,
      "Ġar": 459,
      "erp": 460,
      "Ġtone": 461,
      "ist": 462,
      "ĠDorm": 463,
      "Ġsuch": 464,
      "Ġshould": 465,
      "Ġseem": 466,
      "Ġcame": 467,
      "ĠDormouse": 468,
      "ER": 469,
      "OU": 470,
      "mp": 471,
      "Ġback": 472,
      "Ġmin": 473,
      "Ġhere": 474,
      "Ġgreat": 475,
      "Ġrat": 476,
      "Ġwhich": 477,
      "'re": 478,
      "What": 479,
      "fore": 480,
      "Ġ=": 481,
      "Ġbeen": 482,
      "Ġpl": 483,
      "rom": 484,
      "Ġafter": 485,
      "ace": 486,
      "ever": 487,
      "ic": 488,
      "op": 489,
      "Ġey": 490,
      "Ġus": 491,
      "Ġrem": 492,
      "ĠMar": 493,
      "ep": 494,
      "Ġwell": 495,
      "Ġlong": 496,
      "Ġfo": 497,
      "Ġgl": 498,
      "Ġbefore": 499,
      "Ġhand": 500,
      "Oh": 501,
      "Wh": 502,
      "ag": 503,
      "Ġlast": 504,
      "ily": 505,
      "om": 506,
      "Ġcur": 507,
      "ĠĠĠĠĠĠĠ": 508,
      "ence": 509,
      "Ġfrom": 510,
      "Ġput": 511,
      "ĠShe": 512,
      "ĠMarch": 513,
      "HA": 514,
      "up": 515,
      "xt": 516,
      "Ġke": 517,
      "Ġle": 518,
      "leas": 519,
      "ance": 520,
      "Ġdoor": 521,
      "able": 522,
      "Ġlarge": 523,
      "au": 524,
      "ave": 525,
      "ull": 526,
      "Ġman": 527,
      "Ġun": 528,
      "Ġright": 529,
      "Ġword": 530,
      "Ġminut": 531,
      "but": 532,
      "onder": 533,
      "Ġcat": 534,
      "Ġdear": 535,
      "ass": 536,
      "ĠHare": 537,
      "imp": 538,
      "Ġlooking": 539,
      "Ġmoment": 540,
      "Ġtwo": 541,
      "ĠN": 542,
      "Ġtal": 543,
      "Ġtell": 544,
      "ered": 545,
      "ĠĠĠĠĠ": 546,
      "Ġday": 547,
      "Ġheard": 548,
      "one": 549,
      "ury": 550,
      "Ġnothing": 551,
      "Ġthings": 552,
      "Ġgrow": 553,
      "Ġmade": 554,
      "end": 555,
      "ves": 556,
      "Ġbot": 557,
      "Ġchan": 558,
      "Ġfound": 559,
      "ate": 560,
      "Ġonce": 561,
      "ĠMouse": 562,
      "Ġnear": 563,
      "Ġbegin": 564,
      "lied": 565,
      "Ġreplied": 566,
      "Ġeyes": 567,
      "ame": 568,
      "ire": 569,
      "hed": 570,
      "Ġwonder": 571,
      "Ġmight": 572,
      "ened": 573,
      "ation": 574,
      "Ġhur": 575,
      "illar": 576,
      "Ġnext": 577,
      "erpillar": 578,
      "Ġremar": 579,
      "'d": 580,
      "lt": 581,
      "row": 582,
      "the": 583,
      "ving": 584,
      "Ġen": 585,
      "Ġam": 586,
      "Ġadd": 587,
      "Ġwa": 588,
      "ide": 589,
      "Ġthree": 590,
      "Ġevery": 591,
      "Ġgoing": 592,
      "ĠCaterpillar": 593,
      "Ġturn": 594,
      "Ġseemed": 595,
      "ild": 596,
      "Ġta": 597,
      "Ġtry": 598,
      "Ġwon": 599,
      "Ġcl": 600,
      "Ġmake": 601,
      "Ġfl": 602,
      "Ġgood": 603,
      "Ġpleas": 604,
      "Ġsoon": 605,
      "Ġunder": 606,
      "Ġupon": 607,
      "el": 608,
      "ect": 609,
      "ĠO": 610,
      "Ġtea": 611,
      "Ġaway": 612,
      "Ġwr": 613,
      "Ġfind": 614,
      "Ġwithout": 615,
      "Ġjury": 616,
      "Ġcourse": 617,
      "Ġpoor": 618,
      "ody": 619,
      "Ġrather": 620,
      "igh": 621,
      "ĠY": 622,
      "Ġtre": 623,
      "Ġthan": 624,
      "Ġsm": 625,
      "iting": 626,
      "red": 627,
      "Ġcome": 628,
      "Ġdre": 629,
      "ons": 630,
      "ise": 631,
      "Ġgard": 632,
      "les": 633,
      "ĠSo": 634,
      "Ġmean": 635,
      "ally": 636,
      "Ġgarden": 637,
      "Well": 638,
      "ive": 639,
      "ĠE": 640,
      "here": 641,
      "Ġsort": 642,
      "Ġwill": 643,
      "Ġsame": 644,
      "ory": 645,
      "Ġpe": 646,
      "Ġpi": 647,
      "other": 648,
      "oom": 649,
      "Ġread": 650,
      "Ġfelt": 651,
      "Ġtook": 652,
      "Ġadded": 653,
      "That": 654,
      "age": 655,
      "de": 656,
      "eat": 657,
      "get": 658,
      "ng": 659,
      "ps": 660,
      "umb": 661,
      "Ġma": 662,
      "Ġpa": 663,
      "Ġpu": 664,
      "Ġhalf": 665,
      "Ġhapp": 666,
      "ĠIt": 667,
      "ool": 668,
      "Ġanother": 669,
      "ĠHow": 670,
      "Ġdoes": 671,
      "Ġgetting": 672,
      "Ġchild": 673,
      "ures": 674,
      "Ġshall": 675,
      "ĠWhite": 676,
      "\"'": 677,
      "body": 678,
      "ted": 679,
      "Ġsl": 680,
      "Ġwal": 681,
      "Ġwish": 682,
      "Ġop": 683,
      "Ġfan": 684,
      "Ġyet": 685,
      "ĠTH": 686,
      "right": 687,
      "ĠThere": 688,
      "Ġquest": 689,
      "Ġcall": 690,
      "Ġwords": 691,
      "Ġminute": 692,
      "Ġquestion": 693,
      "But": 694,
      "dly": 695,
      "ff": 696,
      "his": 697,
      "iz": 698,
      "oke": 699,
      "tain": 700,
      "ved": 701,
      "Ġset": 702,
      "ine": 703,
      "ity": 704,
      "Ġold": 705,
      "Ġcried": 706,
      "Ġfee": 707,
      "Ġface": 708,
      "Ġpro": 709,
      "Ġhar": 710,
      "memb": 711,
      "Ġhouse": 712,
      "Ġeat": 713,
      "Ġever": 714,
      "Ġuse": 715,
      "ĠĠĠĠĠĠĠĠĠ": 716,
      "Ġrememb": 717,
      "Ġsure": 718,
      "Ġarm": 719,
      "Why": 720,
      "Ġcurious": 721,
      "HAT": 722,
      "ully": 723,
      "ĠYOU": 724,
      "ah": 725,
      "ful": 726,
      "oot": 727,
      "pt": 728,
      "ĠV": 729,
      "Ġtr": 730,
      "Ġtim": 731,
      "Ġtill": 732,
      "Ġtried": 733,
      "Ġsn": 734,
      "oup": 735,
      "Ġbr": 736,
      "Ġlo": 737,
      "leep": 738,
      "Ġinter": 739,
      "Ġbec": 740,
      "Ġbet": 741,
      "Ġbeing": 742,
      "Ġper": 743,
      "Ġeven": 744,
      "Ġexp": 745,
      "Ġexec": 746,
      "Ġspea": 747,
      "Ġwhile": 748,
      "Ġfeet": 749,
      "Ġrepeat": 750,
      "Ġcourt": 751,
      "iously": 752,
      "Ġexecut": 753,
      "And": 754,
      "How": 755,
      "ft": 756,
      "fully": 757,
      "kes": 758,
      "old": 759,
      "Ġtake": 760,
      "Ġsil": 761,
      "Ġwe": 762,
      "Ġwat": 763,
      "Ġ`--": 764,
      "Ġcro": 765,
      "Ġfin": 766,
      "Ġhear": 767,
      "Ġend": 768,
      "ently": 769,
      "eep": 770,
      "Ġanything": 771,
      "dden": 772,
      "ause": 773,
      "Ġenough": 774,
      "Come": 775,
      "act": 776,
      "ble": 777,
      "dv": 778,
      "ged": 779,
      "sh": 780,
      "ten": 781,
      "ump": 782,
      "Ġtable": 783,
      "Ġside": 784,
      "ertain": 785,
      "haps": 786,
      "Ġbit": 787,
      "Ġcom": 788,
      "Ġlow": 789,
      "Ġless": 790,
      "Ġsat": 791,
      "ished": 792,
      "Ġgu": 793,
      "Ġpart": 794,
      "Ġhast": 795,
      "Ġasked": 796,
      "Ġanx": 797,
      "iff": 798,
      "iful": 799,
      "Ġsupp": 800,
      "Ġsudden": 801,
      "Ġsomething": 802,
      "Ġspoke": 803,
      "ĠBut": 804,
      ".)": 805,
      ":--": 806,
      "No": 807,
      "dge": 808,
      "ew": 809,
      "she": 810,
      "th": 811,
      "Ġid": 812,
      "Ġapp": 813,
      "Ġsit": 814,
      "Ġcertain": 815,
      "Ġdiff": 816,
      "Ġfar": 817,
      "Ġel": 818,
      "Ġran": 819,
      "Ġang": 820,
      "ife": 821,
      "ult": 822,
      "Ġleft": 823,
      "Ġtalking": 824,
      "Ġturned": 825,
      "Ġdoesn": 826,
      "Ġhastily": 827,
      "bst": 828,
      "cl": 829,
      "gs": 830,
      "te": 831,
      "Ġtri": 832,
      "Ġair": 833,
      "Ġseen": 834,
      "Ġwant": 835,
      "Ġlist": 836,
      "llow": 837,
      "Ġinde": 838,
      "Ġpre": 839,
      "Ġpass": 840,
      "Ġthr": 841,
      "Ġhigh": 842,
      "Ġear": 843,
      "ĠThis": 844,
      "urp": 845,
      "ĠHe": 846,
      "eal": 847,
      "pped": 848,
      "aby": 849,
      "Ġsaying": 850,
      "Ġdone": 851,
      "Ġplay": 852,
      "Ġfoot": 853,
      "Ġremark": 854,
      "Ġsmall": 855,
      "Ġcalled": 856,
      "Ġremember": 857,
      "Ġidea": 858,
      "Ġindeed": 859,
      "aw": 860,
      "bb": 861,
      "ho": 862,
      "ick": 863,
      "man": 864,
      "ness": 865,
      "oin": 866,
      "per": 867,
      "sw": 868,
      "zz": 869,
      "Ġought": 870,
      "Ġimp": 871,
      "Ġac": 872,
      "Ġsc": 873,
      "Ġsw": 874,
      "Ġsea": 875,
      "Ġsiz": 876,
      "inah": 877,
      "oud": 878,
      "ited": 879,
      "ren": 880,
      "Ġmor": 881,
      "Ġmout": 882,
      "Ġmouse": 883,
      "Ġlet": 884,
      "Ġlea": 885,
      "Ġsaw": 886,
      "Ġitself": 887,
      "Ġansw": 888,
      "ĠMa": 889,
      "Ġknew": 890,
      "Ġdidn": 891,
      "ĠBill": 892,
      "raw": 893,
      "ERY": 894,
      "Ġtalk": 895,
      "Ġboth": 896,
      "Ġtrying": 897,
      "Ġclose": 898,
      "gether": 899,
      "Ġpuzz": 900,
      "Ġhappen": 901,
      "Ġbetter": 902,
      "Ġperhaps": 903,
      "Ġspeak": 904,
      "Ġanxiously": 905,
      "Ġmouth": 906,
      "If": 907,
      "Not": 908,
      "ac": 909,
      "ach": 910,
      "eer": 911,
      "fus": 912,
      "hind": 913,
      "ile": 914,
      "lain": 915,
      "sation": 916,
      "Ġadv": 917,
      "read": 918,
      "Ġbaby": 919,
      "Ġcook": 920,
      "Ġcreat": 921,
      "Ġmay": 922,
      "idly": 923,
      "Ġdance": 924,
      "Ġfall": 925,
      "Ġgave": 926,
      "Ġgone": 927,
      "Ġbea": 928,
      "Ġbehind": 929,
      "utiful": 930,
      "Ġru": 931,
      "Ġroom": 932,
      "eez": 933,
      "Ġwhis": 934,
      "ĠDod": 935,
      "ĠSoup": 936,
      "Ġshri": 937,
      "Ġqueer": 938,
      "ssed": 939,
      "Ġwhole": 940,
      "lie": 941,
      "There": 942,
      "ways": 943,
      "ople": 944,
      "Ġused": 945,
      "Ġfollow": 946,
      "Ġhands": 947,
      "Ġkept": 948,
      "Ġcats": 949,
      "Ġbeginning": 950,
      "Ġhurried": 951,
      "Ġplease": 952,
      "Ġpeople": 953,
      "ĠHowever": 954,
      "Ġcertainly": 955,
      "Ġthrough": 956,
      "Ġsize": 957,
      "ĠDodo": 958,
      ")=": 959,
      "PT": 960,
      "Then": 961,
      "Yes": 962,
      "io": 963,
      "iers": 964,
      "jest": 965,
      "rup": 966,
      "ts": 967,
      "Ġ)=": 968,
      "Ġsound": 969,
      "Ġsurp": 970,
      "Ġwhere": 971,
      "ither": 972,
      "Ġbir": 973,
      "Ġbus": 974,
      "Ġco": 975,
      "Ġcr": 976,
      "Ġlear": 977,
      "idd": 978,
      "Ġdire": 979,
      "Ġdeep": 980,
      "Ġdeal": 981,
      "Ġhedge": 982,
      "ĠAs": 983,
      "Ġgame": 984,
      "Ġask": 985,
      "--\"": 986,
      "Ġra": 987,
      "Ġrest": 988,
      "quet": 989,
      "geon": 990,
      "Ġjoin": 991,
      "Ġstill": 992,
      "ĠCHA": 993,
      "ards": 994,
      "Ġwouldn": 995,
      "ears": 996,
      "ortant": 997,
      "ches": 998,
      "Ġconfus": 999,
      "Ġafra": 1000,
      "Ġshar": 1001,
      "Ġturning": 1002,
      "erpent": 1003,
      "Ġ=(": 1004,
      "Ġglo": 1005,
      "Ġmany": 1006,
      "Ġchange": 1007,
      "Ġhurry": 1008,
      "Ġamong": 1009,
      "Ġtail": 1010,
      "ĠTHE": 1011,
      "ĠVERY": 1012,
      "Ġinterrup": 1013,
      "Ġfinished": 1014,
      "Ġsuppose": 1015,
      "Ġsuddenly": 1016,
      "Ġelse": 1017,
      "ĠMajest": 1018,
      "PTER": 1019,
      "Ġsurpr": 1020,
      "Ġdirect": 1021,
      "ĠCHAPTER": 1022,
      "Ġafraid": 1023,
      "ĠMajesty": 1024,
      "IN": 1025,
      "IT": 1026,
      "LD": 1027,
      "Of": 1028,
      "VE": 1029,
      "fort": 1030,
      "ich": 1031,
      "igeon": 1032,
      "ken": 1033,
      "lp": 1034,
      "ox": 1035,
      "rink": 1036,
      "that": 1037,
      "ued": 1038,
      "you": 1039,
      "ying": 1040,
      "Ġver": 1041,
      "Ġte": 1042,
      "hether": 1043,
      "Ġsis": 1044,
      "Ġsleep": 1045,
      "Ġthese": 1046,
      "Ġwhether": 1047,
      "Ġmind": 1048,
      "Ġmatter": 1049,
      "Ġlife": 1050,
      "ense": 1051,
      "Ġdou": 1052,
      "Ġdis": 1053,
      "Ġfell": 1054,
      "Ġhelp": 1055,
      "ised": 1056,
      "Ġinst": 1057,
      "ates": 1058,
      "Ġwasn": 1059,
      "versation": 1060,
      "Ġeag": 1061,
      "ĠTHAT": 1062,
      "ching": 1063,
      "Ġsold": 1064,
      "Ġrun": 1065,
      "Ġreas": 1066,
      "eared": 1067,
      "ĠDinah": 1068,
      "Ġshout": 1069,
      "Ġoffend": 1070,
      "Ġgrin": 1071,
      "ched": 1072,
      "Ġcont": 1073,
      "Ġconversation": 1074,
      "ĠFor": 1075,
      "ign": 1076,
      "Ġalways": 1077,
      "They": 1078,
      "ĠPigeon": 1079,
      "Ġglad": 1080,
      "Ġkeep": 1081,
      "Ġminutes": 1082,
      "Ġgrowing": 1083,
      "Ġwaited": 1084,
      "Ġpie": 1085,
      "Ġmakes": 1086,
      "Ġhardly": 1087,
      "ootman": 1088,
      "Ġsneez": 1089,
      "Ġbecause": 1090,
      "Ġexecution": 1091,
      "Ġsilence": 1092,
      "Ġtrial": 1093,
      "Ġlisten": 1094,
      "Ġbird": 1095,
      "Ġgloves": 1096,
      "Ġsister": 1097,
      "Ġeager": 1098,
      "Do": 1099,
      "LL": 1100,
      "OT": 1101,
      "RE": 1102,
      "air": 1103,
      "der": 1104,
      "for": 1105,
      "ie": 1106,
      "uck": 1107,
      "wn": 1108,
      "Ġtears": 1109,
      "Ġsight": 1110,
      "Ġwind": 1111,
      "Ġown": 1112,
      "Ġbook": 1113,
      "Ġbright": 1114,
      "Ġche": 1115,
      "Ġmar": 1116,
      "ener": 1117,
      "Ġdec": 1118,
      "Ġdist": 1119,
      "Ġfur": 1120,
      "Ġfright": 1121,
      "Ġgener": 1122,
      "Ġname": 1123,
      "Ġbest": 1124,
      "Ġbelie": 1125,
      "Ġpool": 1126,
      "Ġhaving": 1127,
      "ĠĠĠĠĠĠĠĠĠĠĠ": 1128,
      "Ġwitness": 1129,
      "Ġreally": 1130,
      "Ġwhy": 1131,
      "rily": 1132,
      "ĠThey": 1133,
      "pper": 1134,
      "Ġjump": 1135,
      "Ġmost": 1136,
      "Ġyourself": 1137,
      "Ġthinking": 1138,
      "antly": 1139,
      "Ġtwink": 1140,
      "Ġplace": 1141,
      "Ġglass": 1142,
      "Who": 1143,
      "Ġbottle": 1144,
      "Ġnearly": 1145,
      "Ġremarked": 1146,
      "Ġeverything": 1147,
      "Ġdream": 1148,
      "Ġchildren": 1149,
      "Ġwalked": 1150,
      "Ġopen": 1151,
      "Ġopened": 1152,
      "Ġrepeated": 1153,
      "Ġcroquet": 1154,
      "Ġlessons": 1155,
      "Ġsitting": 1156,
      "Ġlearn": 1157,
      "Ġhedgeho": 1158,
      "Ġsharp": 1159,
      "Ġdoub": 1160,
      "Ġsoldiers": 1161,
      "Ġreason": 1162,
      "Ġoffended": 1163,
      ",)": 1164,
      "Now": 1165,
      "We": 1166,
      "ap": 1167,
      "ead": 1168,
      "even": 1169,
      "ies": 1170,
      "ky": 1171,
      "lan": 1172,
      "ner": 1173,
      "nave": 1174,
      "oy": 1175,
      "room": 1176,
      "sid": 1177,
      "ue": 1178,
      "ĠOh": 1179,
      "Ġsing": 1180,
      "Ġsever": 1181,
      "Ġsimp": 1182,
      "Ġserpent": 1183,
      "inued": 1184,
      "Ġwood": 1185,
      "Ġopp": 1186,
      "erent": 1187,
      "Ġbl": 1188,
      "Ġtogether": 1189,
      "Ġcrow": 1190,
      "ĠAn": 1191,
      "Ġgive": 1192,
      "ati": 1193,
      "Ġpig": 1194,
      "Ġhall": 1195,
      "Ġthose": 1196,
      "Ġthough": 1197,
      "Ġhop": 1198,
      "Ġhold": 1199,
      "oop": 1200,
      "ĠĠĠĠĠĠĠĠĠĠĠĠĠ": 1201,
      "Ġnotic": 1202,
      "Ġkind": 1203,
      "ĠThen": 1204,
      "Ġsub": 1205,
      "Ġshook": 1206,
      "ppy": 1207,
      "ĠWill": 1208,
      "Ġcare": 1209,
      "Ġagainst": 1210,
      "Ġgold": 1211,
      "Ġcouldn": 1212,
      "ĠKnave": 1213,
      "Ġheads": 1214,
      "Ġwork": 1215,
      "Ġfew": 1216,
      "ush": 1217,
      "OULD": 1218,
      "Ġrate": 1219,
      "Ġkey": 1220,
      "Ġleast": 1221,
      "Ġunc": 1222,
      "Ġtremb": 1223,
      "Ġfanc": 1224,
      "Ġfeeling": 1225,
      "Ġtimidly": 1226,
      "Ġlobst": 1227,
      "Ġexplain": 1228,
      "Ġdifferent": 1229,
      "Ġangrily": 1230,
      "temp": 1231,
      "Ġanswer": 1232,
      "Ġpuzzled": 1233,
      "Ġcreatures": 1234,
      "Ġinterrupted": 1235,
      "Ġshouted": 1236,
      "Ġcontinued": 1237,
      "Ġbirds": 1238,
      "Ġbelieve": 1239,
      "Ġcrowd": 1240,
      "),": 1241,
      "Off": 1242,
      "ced": 1243,
      "day": 1244,
      "ging": 1245,
      "got": 1246,
      "iet": 1247,
      "ls": 1248,
      "mn": 1249,
      "ond": 1250,
      "oes": 1251,
      "po": 1252,
      "so": 1253,
      "tory": 1254,
      "vid": 1255,
      "Ġour": 1256,
      "ĠYou": 1257,
      "head": 1258,
      "Ġsent": 1259,
      "oun": 1260,
      "ery": 1261,
      "ret": 1262,
      "Ġbat": 1263,
      "Ġbro": 1264,
      "Ġtop": 1265,
      "Ġcar": 1266,
      "Ġcle": 1267,
      "Ġlying": 1268,
      "Ġdry": 1269,
      "Ġdel": 1270,
      "Ġdraw": 1271,
      "Ġfact": 1272,
      "iss": 1273,
      "owly": 1274,
      "ĠAt": 1275,
      "Ġnice": 1276,
      "Ġpr": 1277,
      "Ġpers": 1278,
      "Ġhas": 1279,
      "Ġhaven": 1280,
      "ĠIS": 1281,
      "Ġeither": 1282,
      "Ġasleep": 1283,
      "Ġrose": 1284,
      "Ġwhite": 1285,
      "Ġwhiting": 1286,
      "Ġforgot": 1287,
      "imm": 1288,
      "Ġlive": 1289,
      "Ġmush": 1290,
      "Ġstr": 1291,
      "Ġcau": 1292,
      "Ġnose": 1293,
      "orth": 1294,
      "ortun": 1295,
      "ney": 1296,
      "aming": 1297,
      "ĠFootman": 1298,
      "Ġlarg": 1299,
      "arts": 1300,
      "important": 1301,
      "Ġchanged": 1302,
      "ately": 1303,
      "Ġwaiting": 1304,
      "Ġdread": 1305,
      "Ġmeaning": 1306,
      "Ġgardeners": 1307,
      "Ġready": 1308,
      "Ġmaking": 1309,
      "Ġslates": 1310,
      "Ġslowly": 1311,
      "Ġfeel": 1312,
      "Ġproce": 1313,
      "Ġhard": 1314,
      "ĠYOUR": 1315,
      "actly": 1316,
      "Ġcoming": 1317,
      "Ġparty": 1318,
      "Ġappeared": 1319,
      "Ġacc": 1320,
      "Ġmoral": 1321,
      "acle": 1322,
      "Ġbeautiful": 1323,
      "Ġfollowed": 1324,
      "iddle": 1325,
      "Ġdirection": 1326,
      "Ġverse": 1327,
      "Ġrunning": 1328,
      "Ġpiece": 1329,
      "Ġeagerly": 1330,
      "Ġwindow": 1331,
      "Ġdistance": 1332,
      "Ġdoubt": 1333,
      "Ġopportun": 1334,
      "Ġnoticed": 1335,
      "Ġmushroom": 1336,
      "Ġopportunity": 1337,
      "!\"": 1338,
      ".\"'": 1339,
      "AT": 1340,
      "AVE": 1341,
      "HE": 1342,
      "IS": 1343,
      "Just": 1344,
      "aid": 1345,
      "app": 1346,
      "ek": 1347,
      "fter": 1348,
      "ix": 1349,
      "iam": 1350,
      "ject": 1351,
      "ned": 1352,
      "of": 1353,
      "sent": 1354,
      "tend": 1355,
      "wh": 1356,
      "wo": 1357,
      "hesh": 1358,
      "Ġsong": 1359,
      "Ġsec": 1360,
      "Ġsigh": 1361,
      "iness": 1362,
      "ith": 1363,
      "Ġbreat": 1364,
      "Ġbread": 1365,
      "Ġmiddle": 1366,
      "Ġloud": 1367,
      "ided": 1368,
      "Ġden": 1369,
      "Ġdro": 1370,
      "Ġfr": 1371,
      "Ġfour": 1372,
      "aster": 1373,
      "ark": 1374,
      "Ġgir": 1375,
      "lemn": 1376,
      "ather": 1377,
      "Ġbel": 1378,
      "Ġpard": 1379,
      "Ġhair": 1380,
      "esting": 1381,
      "Ġhun": 1382,
      "Ġeach": 1383,
      "Ġevid": 1384,
      "stand": 1385,
      "chool": 1386,
      "Ġsolemn": 1387,
      "enture": 1388,
      "entures": 1389,
      "etch": 1390,
      "Ġhadn": 1391,
      "ĠME": 1392,
      "imney": 1393,
      "Ġneck": 1394,
      "Ġshow": 1395,
      "Ġshut": 1396,
      "Ġisn": 1397,
      "Ġquiet": 1398,
      "Ġstood": 1399,
      "Ġstory": 1400,
      "ĠWhen": 1401,
      "ĠWHAT": 1402,
      "Ġbegun": 1403,
      "Ġhistory": 1404,
      "ssi": 1405,
      "ssion": 1406,
      "Ġgoes": 1407,
      "Ġtired": 1408,
      "Ġgrown": 1409,
      "Ġvio": 1410,
      "Ġventure": 1411,
      "Ġexcl": 1412,
      "ular": 1413,
      "Ġconsid": 1414,
      "Ġworld": 1415,
      "ĠBea": 1416,
      "Ġchin": 1417,
      "Ġchimney": 1418,
      "ĠFive": 1419,
      "Ġothers": 1420,
      "ĠĠĠĠĠĠĠĠĠĠĠĠĠĠĠĠĠĠĠ": 1421,
      "ĠLory": 1422,
      "ĠWhy": 1423,
      "Ġarg": 1424,
      "icult": 1425,
      "Ġeye": 1426,
      "Ġusu": 1427,
      "upid": 1428,
      "Ġmanage": 1429,
      "ĠNo": 1430,
      "ĠNOT": 1431,
      "Ġwondering": 1432,
      "Ġpleased": 1433,
      "Ġtrees": 1434,
      "onsense": 1435,
      "ĠEng": 1436,
      "umber": 1437,
      "Ġpaw": 1438,
      "Ġpuppy": 1439,
      "Ġhappened": 1440,
      "Ġsilent": 1441,
      "Ġwatch": 1442,
      "Ġdifficult": 1443,
      "Ġscre": 1444,
      "Ġbusiness": 1445,
      "Ġsurprised": 1446,
      "Ġdecided": 1447,
      "Ġfrightened": 1448,
      "Ġgenerally": 1449,
      "Ġhedgehog": 1450,
      "atiently": 1451,
      "Ġsubject": 1452,
      "Ġgolden": 1453,
      "Ġuncom": 1454,
      "Ġlobsters": 1455,
      "Ġdelight": 1456,
      "Ġlarger": 1457,
      "heshire": 1458,
      "Ġpardon": 1459,
      "Ġviol": 1460,
      "ĠEngl": 1461,
      ".\"": 1462,
      "AS": 1463,
      "He": 1464,
      "In": 1465,
      "LE": 1466,
      "US": 1467,
      "Would": 1468,
      "av": 1469,
      "aim": 1470,
      "bs": 1471,
      "bly": 1472,
      "box": 1473,
      "cup": 1474,
      "di": 1475,
      "du": 1476,
      "ied": 1477,
      "ime": 1478,
      "lite": 1479,
      "lves": 1480,
      "mo": 1481,
      "men": 1482,
      "ny": 1483,
      "oly": 1484,
      "pig": 1485,
      "ween": 1486,
      "wards": 1487,
      "Ġed": 1488,
      "Ġhat": 1489,
      "Ġtast": 1490,
      "Ġtarts": 1491,
      "Ġsor": 1492,
      "Ġsir": 1493,
      "Ġschool": 1494,
      "inea": 1495,
      "ouble": 1496,
      "ition": 1497,
      "itten": 1498,
      "Ġoh": 1499,
      "ering": 1500,
      "ressed": 1501,
      "Ġbur": 1502,
      "Ġtold": 1503,
      "Ġcut": 1504,
      "Ġlate": 1505,
      "ides": 1506,
      "Ġdare": 1507,
      "Ġfun": 1508,
      "Ġfull": 1509,
      "ash": 1510,
      "ison": 1511,
      "Ġgre": 1512,
      "Ġnur": 1513,
      "Ġnonsense": 1514,
      "Ġinv": 1515,
      "Ġinches": 1516,
      "Ġbeat": 1517,
      "Ġyouth": 1518,
      "ĠIn": 1519,
      "Ġho": 1520,
      "Ġhot": 1521,
      "Ġhour": 1522,
      "utter": 1523,
      "Ġeg": 1524,
      "--`": 1525,
      "oof": 1526,
      "choly": 1527,
      "Ġrabbit": 1528,
      "Ġroof": 1529,
      "Ġanim": 1530,
      "eek": 1531,
      "cked": 1532,
      "ĠHere": 1533,
      "ĠHear": 1534,
      "riz": 1535,
      "Ġknee": 1536,
      "ĠSoo": 1537,
      "Ġshoes": 1538,
      "Ġliked": 1539,
      "Ġbutter": 1540,
      "abel": 1541,
      "Ġstay": 1542,
      "Ġstand": 1543,
      "Ġmelan": 1544,
      "ĠCheshire": 1545,
      "ssing": 1546,
      "ocket": 1547,
      "Ġgrave": 1548,
      "Ġexce": 1549,
      "Ġmyself": 1550,
      "ĠFirst": 1551,
      "Ġalong": 1552,
      "Ġalmo": 1553,
      "Ġpolite": 1554,
      "Ġhowever": 1555,
      "Ġhimself": 1556,
      "ĠLet": 1557,
      "ĠLiz": 1558,
      "ĠWho": 1559,
      "Ġmine": 1560,
      "aged": 1561,
      "aught": 1562,
      "butter": 1563,
      "Ġflaming": 1564,
      "Ġunderstand": 1565,
      "ĠOn": 1566,
      "Ġwriting": 1567,
      "Ġwritten": 1568,
      "Ġpepper": 1569,
      "Ġpict": 1570,
      "Ġpair": 1571,
      "Ġarms": 1572,
      "Ġtrouble": 1573,
      "Ġtimes": 1574,
      "Ġinteresting": 1575,
      "Ġexecuted": 1576,
      "Ġguess": 1577,
      "Ġguinea": 1578,
      "Ġpresent": 1579,
      "Ġleave": 1580,
      "Ġleaves": 1581,
      "Ġwhisp": 1582,
      "Ġshriek": 1583,
      "Ġsneezing": 1584,
      "Ġexecutioner": 1585,
      "Ġmarked": 1586,
      "Ġjumped": 1587,
      "Ġsimple": 1588,
      "Ġtrembling": 1589,
      "Ġfancy": 1590,
      "Ġbroken": 1591,
      "Ġperson": 1592,
      "Ġforgotten": 1593,
      "Ġdreadfully": 1594,
      "Ġprocession": 1595,
      "Ġsecond": 1596,
      "Ġevidence": 1597,
      "Ġexclaim": 1598,
      "Ġscream": 1599,
      "ĠEnglish": 1600,
      "Ġanimal": 1601,
      "ĠHearts": 1602,
      "Ġmelancholy": 1603,
      "Ġalmost": 1604,
      "Ġpolitely": 1605,
      "ĠLizard": 1606,
      "Ġexclaimed": 1607,
      "';": 1608,
      "AN": 1609,
      "AR": 1610,
      "As": 1611,
      "Alice": 1612,
      "Don": 1613,
      "ES": 1614,
      "HO": 1615,
      "Here": 1616,
      "II": 1617,
      "ILL": 1618,
      "Let": 1619,
      "ND": 1620,
      "NE": 1621,
      "OM": 1622,
      "So": 1623,
      "She": 1624,
      "Very": 1625,
      "ault": 1626,
      "be": 1627,
      "cour": 1628,
      "dered": 1629,
      "dign": 1630,
      "fect": 1631,
      "gar": 1632,
      "ges": 1633,
      "how": 1634,
      "ibb": 1635,
      "not": 1636,
      "oor": 1637,
      "obst": 1638,
      "ring": 1639,
      "sp": 1640,
      "sing": 1641,
      "sity": 1642,
      "tim": 1643,
      "til": 1644,
      "ument": 1645,
      "vous": 1646,
      "we": 1647,
      "Ġ'": 1648,
      "Ġent": 1649,
      "Ġimm": 1650,
      "ĠJust": 1651,
      "Ġten": 1652,
      "Ġtree": 1653,
      "Ġsqu": 1654,
      "Ġshan": 1655,
      "Ġsig": 1656,
      "Ġsign": 1657,
      "Ġsky": 1658,
      "iny": 1659,
      "Ġwand": 1660,
      "ervous": 1661,
      "Ġ`\"": 1662,
      "inger": 1663,
      "Ġbow": 1664,
      "Ġban": 1665,
      "Ġbox": 1666,
      "eds": 1667,
      "Ġcas": 1668,
      "Ġcor": 1669,
      "Ġcry": 1670,
      "Ġmutter": 1671,
      "Ġled": 1672,
      "Ġlad": 1673,
      "Ġdrink": 1674,
      "Ġfri": 1675,
      "Ġfig": 1676,
      "Ġfire": 1677,
      "Ġfetch": 1678,
      "Ġfinger": 1679,
      "Ġheight": 1680,
      "Ġsadly": 1681,
      "Ġoften": 1682,
      "asily": 1683,
      "ĠARE": 1684,
      "ĠAfter": 1685,
      "aring": 1686,
      "Ġnat": 1687,
      "Ġnibb": 1688,
      "Ġnervous": 1689,
      "less": 1690,
      "Ġindign": 1691,
      "Ġpack": 1692,
      "Ġpocket": 1693,
      "Ġthrow": 1694,
      "Ġyoung": 1695,
      "ange": 1696,
      "Ġhon": 1697,
      "Ġhook": 1698,
      "Ġhome": 1699,
      "Ġasking": 1700,
      "ĠThat": 1701,
      "uror": 1702,
      "ĠĠĠĠĠĠĠĠĠĠĠĠĠĠĠ": 1703,
      "Ġattend": 1704,
      "Ġreach": 1705,
      "Ġnotice": 1706,
      "ĠHE": 1707,
      "Ġkid": 1708,
      "Ġforget": 1709,
      "Ġdoing": 1710,
      "ĠDo": 1711,
      "Ġknock": 1712,
      "Ġnew": 1713,
      "Ġsul": 1714,
      "Ġshrink": 1715,
      "roll": 1716,
      "ross": 1717,
      "Ġju": 1718,
      "Ġjuror": 1719,
      "Ġsto": 1720,
      "Ġstop": 1721,
      "Ġstick": 1722,
      "Ġmeant": 1723,
      "ĠWOULD": 1724,
      "ĠWAS": 1725,
      "ĠWILL": 1726,
      "Ġmoved": 1727,
      "together": 1728,
      "Ġnobody": 1729,
      "Ġoffic": 1730,
      "Ġorder": 1731,
      "Ġsomebody": 1732,
      "Ġsometim": 1733,
      "Ġground": 1734,
      "Ġgrun": 1735,
      "Ġvan": 1736,
      "Ġext": 1737,
      "Ġexactly": 1738,
      "Ġ(`": 1739,
      "Ġtwice": 1740,
      "Ġreply": 1741,
      "ĠĠĠĠĠĠĠĠĠĠĠĠĠĠĠĠĠĠĠĠĠĠĠĠ": 1742,
      "Ġaloud": 1743,
      "Ġaltogether": 1744,
      "ĠLobst": 1745,
      "ĠWhile": 1746,
      "arth": 1747,
      "Ġshouldn": 1748,
      "Ġseems": 1749,
      "mper": 1750,
      "Ġplan": 1751,
      "Ġremain": 1752,
      "Which": 1753,
      "Ġcurio": 1754,
      "lease": 1755,
      "Ġnearer": 1756,
      "they": 1757,
      "Ġwaving": 1758,
      "Ġeverybody": 1759,
      "Ġtaking": 1760,
      "Ġteacup": 1761,
      "Ġwrite": 1762,
      "Ġwrong": 1763,
      "Ġtreacle": 1764,
      "Ġdrew": 1765,
      "Ġmeans": 1766,
      "Ġwalk": 1767,
      "Ġwalking": 1768,
      "Ġfaces": 1769,
      "Ġremembered": 1770,
      "Ġbring": 1771,
      "Ġlove": 1772,
      "Ġbecome": 1773,
      "Ġbetween": 1774,
      "Ġspeaking": 1775,
      "Ġwater": 1776,
      "Ġfinish": 1777,
      "Ġangry": 1778,
      "Ġpassed": 1779,
      "Ġears": 1780,
      "aws": 1781,
      "bbing": 1782,
      "Ġimpatiently": 1783,
      "Ġacross": 1784,
      "Ġswam": 1785,
      "Ġmorning": 1786,
      "rawling": 1787,
      "Ġhappens": 1788,
      "Ġshrill": 1789,
      "Ġsounded": 1790,
      "Ġconfusion": 1791,
      "Ġsurprise": 1792,
      "INK": 1793,
      "fortable": 1794,
      "Ġtemper": 1795,
      "Ġsleepy": 1796,
      "Ġfellow": 1797,
      "Ġinstantly": 1798,
      "Ġtwinkle": 1799,
      "Ġhope": 1800,
      "ĠWilliam": 1801,
      "tempt": 1802,
      "Ġcrowded": 1803,
      "Ġsentence": 1804,
      "Ġstrange": 1805,
      "Ġdropped": 1806,
      "Ġquietly": 1807,
      "Ġargument": 1808,
      "Ġusual": 1809,
      "Ġsorrow": 1810,
      "Ġeggs": 1811,
      "rizes": 1812,
      "Ġflamingo": 1813,
      "Ġwhispered": 1814,
      "Ġsighed": 1815,
      "Ġcase": 1816,
      "Ġfriend": 1817,
      "Ġhookah": 1818,
      "Ġsometimes": 1819,
      "ĠLobster": 1820,
      "Ġcuriosity": 1821,
      ").": 1822,
      ",\"": 1823,
      ",\"'": 1824,
      "?--": 1825,
      "Ah": 1826,
      "Are": 1827,
      "Be": 1828,
      "Call": 1829,
      "ET": 1830,
      "EV": 1831,
      "Ex": 1832,
      "Hold": 1833,
      "ID": 1834,
      "IM": 1835,
      "On": 1836,
      "One": 1837,
      "Please": 1838,
      "Sure": 1839,
      "TS": 1840,
      "az": 1841,
      "ail": 1842,
      "bow": 1843,
      "book": 1844,
      "cc": 1845,
      "co": 1846,
      "chen": 1847,
      "cop": 1848,
      "cap": 1849,
      "ef": 1850,
      "ely": 1851,
      "fish": 1852,
      "gl": 1853,
      "hor": 1854,
      "iv": 1855,
      "las": 1856,
      "ms": 1857,
      "mon": 1858,
      "oh": 1859,
      "os": 1860,
      "oking": 1861,
      "pit": 1862,
      "ped": 1863,
      "ray": 1864,
      "side": 1865,
      "tree": 1866,
      "uc": 1867,
      "ude": 1868,
      "uff": 1869,
      "vage": 1870,
      "well": 1871,
      "when": 1872,
      "wise": 1873,
      "where": 1874,
      "Ġes": 1875,
      "Ġter": 1876,
      "Ġtaught": 1877,
      "Ġtiny": 1878,
      "Ġage": 1879,
      "Ġsin": 1880,
      "Ġsli": 1881,
      "Ġsoup": 1882,
      "Ġsides": 1883,
      "Ġwow": 1884,
      "Ġwild": 1885,
      "Ġworth": 1886,
      "Ġweek": 1887,
      "itchen": 1888,
      "itude": 1889,
      "Ġob": 1890,
      "Ġocc": 1891,
      "hand": 1892,
      "ings": 1893,
      "Ġbar": 1894,
      "Ġtong": 1895,
      "edi": 1896,
      "Ġcup": 1897,
      "Ġmice": 1898,
      "Ġlay": 1899,
      "Ġlock": 1900,
      "Ġlau": 1901,
      "ider": 1902,
      "Ġdes": 1903,
      "Ġdish": 1904,
      "Ġdead": 1905,
      "Ġdark": 1906,
      "lle": 1907,
      "Ġfly": 1908,
      "Ġfill": 1909,
      "Ġfear": 1910,
      "Ġfast": 1911,
      "Ġfish": 1912,
      "Ġheld": 1913,
      "Ġsavage": 1914,
      "ĠAdv": 1915,
      "ĠALL": 1916,
      "arm": 1917,
      "ary": 1918,
      "arre": 1919,
      "arse": 1920,
      "Ġnight": 1921,
      "Ġnone": 1922,
      "Ġnine": 1923,
      "Ġnumber": 1924,
      "let": 1925,
      "orpo": 1926,
      "Ġbehead": 1927,
      "Ġyer": 1928,
      "Ġyaw": 1929,
      "Ġpatter": 1930,
      "Ġpeep": 1931,
      "Ġporpo": 1932,
      "set": 1933,
      "selves": 1934,
      "Ġthim": 1935,
      "ote": 1936,
      "Ġhers": 1937,
      "Ġearth": 1938,
      "ĠTO": 1939,
      "ĠTwo": 1940,
      "--\"'": 1941,
      "ural": 1942,
      "Ġsobs": 1943,
      "enth": 1944,
      "enty": 1945,
      "Ġring": 1946,
      "ading": 1947,
      "adri": 1948,
      "Ġreal": 1949,
      "ĠMabel": 1950,
      "ĠHAVE": 1951,
      "verything": 1952,
      "Ġkitchen": 1953,
      "eak": 1954,
      "aint": 1955,
      "ĠDon": 1956,
      "Ġupset": 1957,
      "owning": 1958,
      "ĠSeven": 1959,
      "ĠSHE": 1960,
      "ĠSaid": 1961,
      "ĠSOM": 1962,
      "Ġshort": 1963,
      "pping": 1964,
      "Ġmus": 1965,
      "Ġquick": 1966,
      "Ġquarre": 1967,
      "Ġstra": 1968,
      "Ġstart": 1969,
      "Ġstupid": 1970,
      "ĠWhat": 1971,
      "ĠCome": 1972,
      "ĠCOULD": 1973,
      "ĠCAN": 1974,
      "Ġcapit": 1975,
      "tom": 1976,
      "Ġlikely": 1977,
      "Ġthoughtfully": 1978,
      "ĠQuadri": 1979,
      "Ġordered": 1980,
      "Ġgrass": 1981,
      "Ġsays": 1982,
      "allow": 1983,
      "asts": 1984,
      "Ġspread": 1985,
      "ames": 1986,
      "Ġtwel": 1987,
      "Ġconcl": 1988,
      "Ġcontempt": 1989,
      "Ġotherwise": 1990,
      "ĠĠĠĠĠĠĠĠĠĠĠĠĠĠĠĠĠĠĠĠĠĠ": 1991,
      "ĠĠĠĠĠĠĠĠĠĠĠĠĠĠĠĠĠĠĠĠĠ": 1992,
      "igging": 1993,
      "Ġalone": 1994,
      "Ġpos": 1995,
      "Ġpoin": 1996,
      "Ġpossi": 1997,
      "ecause": 1998,
      "Ġarches": 1999,
      "Ġshoulder": 2000,
      "Ġshoulders": 2001,
      "icular": 2002,
      "Ġfond": 2003,
      "Ġfold": 2004,
      "Ġmanaged": 2005,
      "Ġuntil": 2006,
      "Ġdays": 2007,
      "Ġbottom": 2008,
      "Ġchance": 2009,
      "Ġbegins": 2010,
      "Ġencour": 2011,
      "Ġtaken": 2012,
      "Ġflow": 2013,
      "ĠONE": 2014,
      "Ġjurymen": 2015,
      "Ġsmil": 2016,
      "lescop": 2017,
      "Ġreading": 2018,
      "umbs": 2019,
      "Ġpale": 2020,
      "Ġpaper": 2021,
      "Ġslate": 2022,
      "ĠTHIS": 2023,
      "Ġquestions": 2024,
      "Ġsett": 2025,
      "oots": 2026,
      "ootiful": 2027,
      "Ġperfect": 2028,
      "Ġcross": 2029,
      "Ġhearing": 2030,
      "Ġparticular": 2031,
      "Ġsuppressed": 2032,
      "Ġappear": 2033,
      "Ġelbow": 2034,
      "Ġwanted": 2035,
      "Ġpassion": 2036,
      "Ġpassage": 2037,
      "Ġplayers": 2038,
      "hole": 2039,
      "Ġimportant": 2040,
      "rench": 2041,
      "Ġletter": 2042,
      "Ġanswered": 2043,
      "Ġpuzzling": 2044,
      "Ġmouths": 2045,
      "Nothing": 2046,
      "Ġadventures": 2047,
      "Ġcreature": 2048,
      "Ġfallen": 2049,
      "Ġbeaut": 2050,
      "Ġrule": 2051,
      "Ġbusily": 2052,
      "Ġcomp": 2053,
      "Ġdeeply": 2054,
      "Ġconfused": 2055,
      "ING": 2056,
      "Ġtelescop": 2057,
      "airs": 2058,
      "Ġjumping": 2059,
      "Ġtwinkling": 2060,
      "Ġsharply": 2061,
      "Ġseveral": 2062,
      "Ġseverely": 2063,
      "ĠAnn": 2064,
      "retched": 2065,
      "Ġbats": 2066,
      "Ġcarried": 2067,
      "Ġclear": 2068,
      "Ġverses": 2069,
      "Ġbreath": 2070,
      "Ġfrowning": 2071,
      "Ġgirl": 2072,
      "Ġhung": 2073,
      "Ġsolemnly": 2074,
      "Ġventured": 2075,
      "ĠBeau": 2076,
      "Ġpaws": 2077,
      "Ġdifficulty": 2078,
      "Ġdecidedly": 2079,
      "Ġuncomfortable": 2080,
      "Ġviolently": 2081,
      "dict": 2082,
      "pigs": 2083,
      "Ġgreen": 2084,
      "Ġhoarse": 2085,
      "Ġhours": 2086,
      "Ġexcept": 2087,
      "Ġpictures": 2088,
      "Ġscreamed": 2089,
      "Ġanimals": 2090,
      "Ġimmedi": 2091,
      "Ġbowed": 2092,
      "Ġbank": 2093,
      "Ġcorner": 2094,
      "Ġnatural": 2095,
      "Ġindignantly": 2096,
      "Ġhonour": 2097,
      "Ġshrinking": 2098,
      "Ġjudge": 2099,
      "Ġjurors": 2100,
      "Ġofficers": 2101,
      "Ġgrunted": 2102,
      "Ġvanished": 2103,
      "cape": 2104,
      "glif": 2105,
      "ivil": 2106,
      "Ġescape": 2107,
      "Ġsince": 2108,
      "Ġtongue": 2109,
      "Ġporpoise": 2110,
      "Ġthimble": 2111,
      "Ġstraight": 2112,
      "Ġcapital": 2113,
      "ĠQuadrille": 2114,
      "Ġtwelve": 2115,
      "Ġperfectly": 2116,
      "!--": 2117,
      "!\"'": 2118,
      "\"!'": 2119,
      "\"--": 2120,
      "?\"'": 2121,
      "BO": 2122,
      "CE": 2123,
      "Cons": 2124,
      "Did": 2125,
      "Dinah": 2126,
      "Footman": 2127,
      "GH": 2128,
      "Give": 2129,
      "HER": 2130,
      "Have": 2131,
      "Is": 2132,
      "ICE": 2133,
      "My": 2134,
      "Never": 2135,
      "ORE": 2136,
      "Per": 2137,
      "St": 2138,
      "Su": 2139,
      "Tw": 2140,
      "Than": 2141,
      "Take": 2142,
      "This": 2143,
      "Will": 2144,
      "When": 2145,
      "YOU": 2146,
      "bo": 2147,
      "because": 2148,
      "ci": 2149,
      "cing": 2150,
      "cce": 2151,
      "come": 2152,
      "cil": 2153,
      "cus": 2154,
      "em": 2155,
      "ex": 2156,
      "ext": 2157,
      "gra": 2158,
      "gled": 2159,
      "gged": 2160,
      "ip": 2161,
      "iles": 2162,
      "just": 2163,
      "kers": 2164,
      "land": 2165,
      "lare": 2166,
      "mer": 2167,
      "mor": 2168,
      "ners": 2169,
      "oon": 2170,
      "ove": 2171,
      "oked": 2172,
      "oved": 2173,
      "ossi": 2174,
      "pan": 2175,
      "pie": 2176,
      "round": 2177,
      "sult": 2178,
      "tis": 2179,
      "till": 2180,
      "tro": 2181,
      "time": 2182,
      "um": 2183,
      "uous": 2184,
      "wl": 2185,
      "what": 2186,
      "ĠX": 2187,
      "Ġ--": 2188,
      "ĠOU": 2189,
      "Ġtumb": 2190,
      "Ġtuck": 2191,
      "hes": 2192,
      "Ġali": 2193,
      "Ġsk": 2194,
      "Ġsend": 2195,
      "Ġsense": 2196,
      "Ġsix": 2197,
      "int": 2198,
      "oudly": 2199,
      "its": 2200,
      "itted": 2201,
      "ert": 2202,
      "hall": 2203,
      "Ġble": 2204,
      "Ġboy": 2205,
      "Ġtoes": 2206,
      "Ġtossing": 2207,
      "edn": 2208,
      "eded": 2209,
      "Ġcha": 2210,
      "Ġcri": 2211,
      "Ġcand": 2212,
      "Ġcust": 2213,
      "Ġcards": 2214,
      "Ġcivil": 2215,
      "Ġmis": 2216,
      "Ġment": 2217,
      "Ġmet": 2218,
      "Ġmist": 2219,
      "Ġmiss": 2220,
      "Ġmaster": 2221,
      "Ġmiles": 2222,
      "Ġloudly": 2223,
      "ident": 2224,
      "encil": 2225,
      "Ġdr": 2226,
      "Ġdin": 2227,
      "Ġdri": 2228,
      "Ġdull": 2229,
      "Ġdef": 2230,
      "Ġfight": 2231,
      "Ġfore": 2232,
      "Ġfree": 2233,
      "Ġfair": 2234,
      "Ġfaster": 2235,
      "Ġsad": 2236,
      "only": 2237,
      "asy": 2238,
      "ising": 2239,
      "ĠAll": 2240,
      "ĠAND": 2241,
      "Ġgi": 2242,
      "Ġgently": 2243,
      "lead": 2244,
      "orto": 2245,
      "orus": 2246,
      "Ġintro": 2247,
      "ater": 2248,
      "ated": 2249,
      "atch": 2250,
      "Ġyes": 2251,
      "Ġpin": 2252,
      "Ġpun": 2253,
      "Ġprom": 2254,
      "Ġpity": 2255,
      "Ġprizes": 2256,
      "Ġplead": 2257,
      "Ġhang": 2258,
      "ĠIT": 2259,
      "ĠIf": 2260,
      "any": 2261,
      "anther": 2262,
      "Ġhumb": 2263,
      "ute": 2264,
      "utiously": 2265,
      "Ġeff": 2266,
      "Ġeasily": 2267,
      "ĠTell": 2268,
      "ĠTime": 2269,
      "ĠTorto": 2270,
      "oose": 2271,
      "urn": 2272,
      "Ġsobbing": 2273,
      "Ġune": 2274,
      "ented": 2275,
      "Ġrid": 2276,
      "Ġrace": 2277,
      "ĠĠĠĠĠĠĠĠĠĠĠĠĠĠ": 2278,
      "terday": 2279,
      "Ġret": 2280,
      "Ġrelie": 2281,
      "Ġresp": 2282,
      "Ġreco": 2283,
      "eech": 2284,
      "cking": 2285,
      "Ġnotion": 2286,
      "ĠMUS": 2287,
      "ĠHer": 2288,
      "ĠHER": 2289,
      "ĠHIM": 2290,
      "Ġkill": 2291,
      "Ġkick": 2292,
      "ainting": 2293,
      "Ġdog": 2294,
      "Ġdogs": 2295,
      "ĠDown": 2296,
      "ĠDrawling": 2297,
      "rying": 2298,
      "Ġneat": 2299,
      "Ġneedn": 2300,
      "Ġsuit": 2301,
      "Ġsucce": 2302,
      "Ġoutside": 2303,
      "Ġshore": 2304,
      "Ġlivery": 2305,
      "Ġlived": 2306,
      "rog": 2307,
      "ioned": 2308,
      "Ġstaring": 2309,
      "Ġstuff": 2310,
      "Ġstairs": 2311,
      "Ġmeet": 2312,
      "ĠWould": 2313,
      "ĠWonder": 2314,
      "ĠWhere": 2315,
      "Ġabs": 2316,
      "Ġabove": 2317,
      "Ġmove": 2318,
      "Ġmoving": 2319,
      "ĠCau": 2320,
      "Ġcake": 2321,
      "Ġcakes": 2322,
      "Ġcautiously": 2323,
      "ourn": 2324,
      "Ġknowled": 2325,
      "inkle": 2326,
      "Ġthemselves": 2327,
      "Ġnoise": 2328,
      "ĠQU": 2329,
      "Ġgrand": 2330,
      "ilence": 2331,
      "unate": 2332,
      "Ġspect": 2333,
      "Ġsplas": 2334,
      "Ġspeech": 2335,
      "antage": 2336,
      "liged": 2337,
      "amp": 2338,
      "Ġworse": 2339,
      "ests": 2340,
      "Ġmuchness": 2341,
      "used": 2342,
      "ĠBE": 2343,
      "ĠBy": 2344,
      "Ġchoked": 2345,
      "Ġchorus": 2346,
      "ĠFrench": 2347,
      "ĠĠĠĠĠĠĠĠĠĠĠĠĠĠĠĠĠĠ": 2348,
      "ĠĠĠĠĠĠĠĠĠĠĠĠĠĠĠĠĠĠĠĠ": 2349,
      "ĠĠĠĠĠĠĠĠĠĠĠĠĠĠĠĠĠĠĠĠĠĠĠ": 2350,
      "Ġvoices": 2351,
      "Ġalas": 2352,
      "Ġalarm": 2353,
      "Ġcourage": 2354,
      "Ġhowling": 2355,
      "oughly": 2356,
      "Ġshaking": 2357,
      "Ġshaped": 2358,
      "ĠDuck": 2359,
      "ĠLat": 2360,
      "ĠLong": 2361,
      "Ġmustard": 2362,
      "ecting": 2363,
      "ĠWhich": 2364,
      "ĠPanther": 2365,
      "Ġarch": 2366,
      "Ġaround": 2367,
      "Ġplate": 2368,
      "ĠMary": 2369,
      "Ġlonger": 2370,
      "Ġhanded": 2371,
      "aging": 2372,
      "aglet": 2373,
      "Ġputting": 2374,
      "Ġlegs": 2375,
      "Ġunfort": 2376,
      "Ġcatch": 2377,
      "Ġdears": 2378,
      "ĠNow": 2379,
      "Ġgrowl": 2380,
      "ations": 2381,
      "Ġhurt": 2382,
      "Ġremarking": 2383,
      "Ġturns": 2384,
      "Ġtale": 2385,
      "Ġclos": 2386,
      "Ġfloor": 2387,
      "els": 2388,
      "ected": 2389,
      "ĠOF": 2390,
      "ĠOff": 2391,
      "ĠOwl": 2392,
      "Ġwrote": 2393,
      "Ġfinding": 2394,
      "ĠYet": 2395,
      "ĠEaglet": 2396,
      "Ġsorts": 2397,
      "Ġpicked": 2398,
      "ĠTHINK": 2399,
      "Ġproper": 2400,
      "Ġtrot": 2401,
      "Ġtrump": 2402,
      "Ġtrue": 2403,
      "Ġtimid": 2404,
      "Ġsnail": 2405,
      "Ġbran": 2406,
      "Ġbrought": 2407,
      "Ġlost": 2408,
      "Ġexpecting": 2409,
      "Ġrepeating": 2410,
      "olded": 2411,
      "Ġwatching": 2412,
      "Ġcrossed": 2413,
      "Ġlesson": 2414,
      "Ġguests": 2415,
      "Ġanxious": 2416,
      "clock": 2417,
      "Ġpressed": 2418,
      "Ġfootman": 2419,
      "Ġremarks": 2420,
      "Ġsmaller": 2421,
      "Ġimpossi": 2422,
      "Ġswim": 2423,
      "Ġswallow": 2424,
      "acles": 2425,
      "Ġadvantage": 2426,
      "Ġrules": 2427,
      "Ġwhisper": 2428,
      "Ġwhiskers": 2429,
      "Ġfollows": 2430,
      "Ġsounds": 2431,
      "Ġcrown": 2432,
      "Ġcrash": 2433,
      "Ġcrumbs": 2434,
      "Ġjoined": 2435,
      "Ġconfusing": 2436,
      "Ġtails": 2437,
      "Ġverdict": 2438,
      "Ġdisapp": 2439,
      "Ġinstance": 2440,
      "Ġinstead": 2441,
      "Ġgrinned": 2442,
      "Ġlistening": 2443,
      "Ġcheered": 2444,
      "Ġchecked": 2445,
      "Ġmark": 2446,
      "Ġdeclare": 2447,
      "Ġfurther": 2448,
      "Ġgeneral": 2449,
      "Ġopening": 2450,
      "Ġhedgehogs": 2451,
      "evening": 2452,
      "Ġsimply": 2453,
      "Ġserpents": 2454,
      "Ġblow": 2455,
      "Ġhoping": 2456,
      "Ġholding": 2457,
      "Ġcarefully": 2458,
      "poison": 2459,
      "Ġprison": 2460,
      "Ġroses": 2461,
      "imming": 2462,
      "Ġcause": 2463,
      "Ġcaught": 2464,
      "Ġaccoun": 2465,
      "Ġaccident": 2466,
      "Ġdirections": 2467,
      "Ġpieces": 2468,
      "ixed": 2469,
      "why": 2470,
      "Ġsighing": 2471,
      "Ġbreathe": 2472,
      "Ġfron": 2473,
      "Ġgirls": 2474,
      "Ġbelow": 2475,
      "Ġbelong": 2476,
      "Ġhunting": 2477,
      "Ġconsidered": 2478,
      "Ġconsidering": 2479,
      "ĠBeautiful": 2480,
      "avy": 2481,
      "duced": 2482,
      "Ġedge": 2483,
      "Ġtasted": 2484,
      "Ġburn": 2485,
      "Ġfunny": 2486,
      "Ġnurse": 2487,
      "Ġnursing": 2488,
      "Ġgravely": 2489,
      "Ġguessed": 2490,
      "HOR": 2491,
      "Ġsquea": 2492,
      "Ġmuttering": 2493,
      "Ġlady": 2494,
      "Ġfigure": 2495,
      "Ġnibbling": 2496,
      "Ġattending": 2497,
      "Ġforgetting": 2498,
      "Ġknocking": 2499,
      "Ġsulky": 2500,
      "Ġstopped": 2501,
      "Ġremained": 2502,
      "Ġbringing": 2503,
      "EVER": 2504,
      "Ġslipped": 2505,
      "Ġobliged": 2506,
      "Ġfilled": 2507,
      "ĠAdventures": 2508,
      "Ġbeheaded": 2509,
      "Ġpattering": 2510,
      "Ġpeeped": 2511,
      "ĠSOME": 2512,
      "Ġmusic": 2513,
      "Ġquarrell": 2514,
      "Ġcontemptuous": 2515,
      "Ġposition": 2516,
      "Ġpointing": 2517,
      "Ġpossibly": 2518,
      "Ġfolded": 2519,
      "Ġsettled": 2520,
      "Ġbeautif": 2521,
      "Ġtelescope": 2522,
      "Ġhungry": 2523,
      "Ġimmediately": 2524,
      "Consider": 2525,
      "Perhaps": 2526,
      "Thank": 2527,
      "Ġtucked": 2528,
      "Ġalive": 2529,
      "Ġcandle": 2530,
      "Ġmentioned": 2531,
      "Ġmistake": 2532,
      "Ġdefault": 2533,
      "Ġyesterday": 2534,
      "Ġpleaded": 2535,
      "Ġhanging": 2536,
      "Ġeffect": 2537,
      "ĠTortoise": 2538,
      "Ġrespect": 2539,
      "ĠMUST": 2540,
      "Ġsucceeded": 2541,
      "ĠWonderland": 2542,
      "ĠCaucus": 2543,
      "Ġknowledge": 2544,
      "Ġspectacles": 2545,
      "Ġunfortunate": 2546,
      "Ġtrumpet": 2547,
      "Ġimpossible": 2548,
      "',": 2549,
      ");": 2550,
      ")--": 2551,
      ".--": 2552,
      "00": 2553,
      "02": 2554,
      "03": 2555,
      "08": 2556,
      "202": 2557,
      "?\"": 2558,
      "AD": 2559,
      "AM": 2560,
      "All": 2561,
      "AID": 2562,
      "Bea": 2563,
      "Bill": 2564,
      "Can": 2565,
      "DR": 2566,
      "DY": 2567,
      "ED": 2568,
      "For": 2569,
      "Found": 2570,
      "Go": 2571,
      "Get": 2572,
      "HING": 2573,
      "IF": 2574,
      "IGH": 2575,
      "IAM": 2576,
      "Keep": 2577,
      "LICE": 2578,
      "May": 2579,
      "NS": 2580,
      "Nimportant": 2581,
      "OK": 2582,
      "OVE": 2583,
      "OOT": 2584,
      "RU": 2585,
      "Rea": 2586,
      "SE": 2587,
      "Sh": 2588,
      "Sp": 2589,
      "Serpent": 2590,
      "Silence": 2591,
      "Tre": 2592,
      "Tis": 2593,
      "Tell": 2594,
      "THAT": 2595,
      "Two": 2596,
      "TLE": 2597,
      "Turn": 2598,
      "UR": 2599,
      "Up": 2600,
      "Ugh": 2601,
      "Uglif": 2602,
      "UNimportant": 2603,
      "WO": 2604,
      "Wow": 2605,
      "Wake": 2606,
      "Where": 2607,
      "With": 2608,
      "Your": 2609,
      "ak": 2610,
      "ax": 2611,
      "ais": 2612,
      "ale": 2613,
      "by": 2614,
      "bour": 2615,
      "bish": 2616,
      "cr": 2617,
      "cha": 2618,
      "car": 2619,
      "cert": 2620,
      "dw": 2621,
      "din": 2622,
      "ded": 2623,
      "don": 2624,
      "des": 2625,
      "eed": 2626,
      "epper": 2627,
      "everything": 2628,
      "fe": 2629,
      "four": 2630,
      "fits": 2631,
      "folded": 2632,
      "gin": 2633,
      "gly": 2634,
      "ghed": 2635,
      "gular": 2636,
      "ground": 2637,
      "ier": 2638,
      "iver": 2639,
      "ipp": 2640,
      "ipped": 2641,
      "ks": 2642,
      "kily": 2643,
      "lid": 2644,
      "look": 2645,
      "later": 2646,
      "med": 2647,
      "mmer": 2648,
      "mitted": 2649,
      "no": 2650,
      "nes": 2651,
      "nam": 2652,
      "nest": 2653,
      "noy": 2654,
      "ogra": 2655,
      "pe": 2656,
      "pot": 2657,
      "pto": 2658,
      "past": 2659,
      "pleas": 2660,
      "plain": 2661,
      "pidly": 2662,
      "pute": 2663,
      "rit": 2664,
      "ron": 2665,
      "rab": 2666,
      "ram": 2667,
      "rance": 2668,
      "sal": 2669,
      "sently": 2670,
      "ty": 2671,
      "tly": 2672,
      "teen": 2673,
      "tling": 2674,
      "tone": 2675,
      "uce": 2676,
      "under": 2677,
      "ually": 2678,
      "uded": 2679,
      "vo": 2680,
      "will": 2681,
      "worth": 2682,
      "with": 2683,
      "yst": 2684,
      "ze": 2685,
      "Ġ1": 2686,
      "Ġ@": 2687,
      "Ġ[": 2688,
      "Ġ_": 2689,
      "Ġve": 2690,
      "Ġim": 2691,
      "Ġill": 2692,
      "Ġtou": 2693,
      "Ġtall": 2694,
      "Ġtreat": 2695,
      "Ġturtle": 2696,
      "Ġad": 2697,
      "Ġax": 2698,
      "Ġaut": 2699,
      "Ġact": 2700,
      "Ġse": 2701,
      "Ġser": 2702,
      "Ġsen": 2703,
      "Ġsell": 2704,
      "ining": 2705,
      "ines": 2706,
      "inter": 2707,
      "Ġwet": 2708,
      "Ġwink": 2709,
      "Ġwig": 2710,
      "Ġwag": 2711,
      "Ġwom": 2712,
      "Ġwide": 2713,
      "Ġwise": 2714,
      "Ġwine": 2715,
      "Ġweak": 2716,
      "Ġwretched": 2717,
      "oured": 2718,
      "itation": 2719,
      "itive": 2720,
      "ndo": 2721,
      "erre": 2722,
      "eror": 2723,
      "erim": 2724,
      "erable": 2725,
      "erci": 2726,
      "Ġ`'": 2727,
      "happy": 2728,
      "hamed": 2729,
      "rew": 2730,
      "reme": 2731,
      "ressing": 2732,
      "reak": 2733,
      "resently": 2734,
      "Ġbad": 2735,
      "Ġbite": 2736,
      "Ġbody": 2737,
      "Ġbark": 2738,
      "Ġboots": 2739,
      "Ġbreak": 2740,
      "Ġtones": 2741,
      "Ġcir": 2742,
      "Ġcart": 2743,
      "Ġcool": 2744,
      "Ġcoup": 2745,
      "Ġcush": 2746,
      "Ġcoun": 2747,
      "Ġcuc": 2748,
      "Ġmon": 2749,
      "Ġmur": 2750,
      "Ġmere": 2751,
      "Ġmil": 2752,
      "Ġmess": 2753,
      "Ġmeek": 2754,
      "Ġmourn": 2755,
      "Ġmixed": 2756,
      "Ġlone": 2757,
      "Ġline": 2758,
      "Ġlaw": 2759,
      "Ġlap": 2760,
      "Ġlaid": 2761,
      "Ġlabel": 2762,
      "Ġlaz": 2763,
      "eng": 2764,
      "enny": 2765,
      "Ġdan": 2766,
      "Ġdot": 2767,
      "Ġdigging": 2768,
      "Ġdais": 2769,
      "Ġdipped": 2770,
      "lly": 2771,
      "llent": 2772,
      "llected": 2773,
      "Ġfif": 2774,
      "Ġfam": 2775,
      "Ġfine": 2776,
      "Ġfoun": 2777,
      "Ġfather": 2778,
      "Ġfav": 2779,
      "Ġfash": 2780,
      "Ġfaint": 2781,
      "Ġfrog": 2782,
      "Ġferre": 2783,
      "Ġheart": 2784,
      "Ġheavy": 2785,
      "Ġsand": 2786,
      "Ġsalt": 2787,
      "Ġsang": 2788,
      "Ġsafe": 2789,
      "Ġsauce": 2790,
      "once": 2791,
      "onqu": 2792,
      "asion": 2793,
      "ashed": 2794,
      "ises": 2795,
      "ishing": 2796,
      "isable": 2797,
      "ĠALICE": 2798,
      "aris": 2799,
      "arch": 2800,
      "arrow": 2801,
      "Ġgidd": 2802,
      "Ġgoose": 2803,
      "Ġnor": 2804,
      "Ġnames": 2805,
      "Ġnarrow": 2806,
      "lets": 2807,
      "legged": 2808,
      "orter": 2809,
      "oroughly": 2810,
      "orcar": 2811,
      "ordin": 2812,
      "Ġink": 2813,
      "Ġinqu": 2814,
      "ath": 2815,
      "Ġbend": 2816,
      "Ġbear": 2817,
      "Ġbesid": 2818,
      "Ġbeasts": 2819,
      "Ġyear": 2820,
      "Ġpat": 2821,
      "Ġpan": 2822,
      "Ġpur": 2823,
      "Ġpull": 2824,
      "Ġpause": 2825,
      "Ġpatiently": 2826,
      "Ġpencil": 2827,
      "Ġpainting": 2828,
      "Ġparch": 2829,
      "semb": 2830,
      "Ġthro": 2831,
      "Ġthous": 2832,
      "Ġthump": 2833,
      "Ġthunder": 2834,
      "Ġthrew": 2835,
      "Ġthoroughly": 2836,
      "aning": 2837,
      "anter": 2838,
      "anced": 2839,
      "angled": 2840,
      "Ġwash": 2841,
      "Ġwashing": 2842,
      "Ġwasting": 2843,
      "otic": 2844,
      "esides": 2845,
      "vered": 2846,
      "Ġhit": 2847,
      "Ġhint": 2848,
      "ldron": 2849,
      "uth": 2850,
      "ghing": 2851,
      "Ġele": 2852,
      "Ġemp": 2853,
      "Ġeasy": 2854,
      "Ġashamed": 2855,
      "Ġassemb": 2856,
      "stant": 2857,
      "step": 2858,
      "stupid": 2859,
      "ĠTh": 2860,
      "ĠTWO": 2861,
      "urd": 2862,
      "urred": 2863,
      "Ġsoft": 2864,
      "Ġuglif": 2865,
      "Ġugly": 2866,
      "Ġundo": 2867,
      "Ġro": 2868,
      "Ġrow": 2869,
      "Ġrust": 2870,
      "Ġridd": 2871,
      "Ġroy": 2872,
      "Ġrush": 2873,
      "ĠĠĠĠĠĠĠĠĠĠ": 2874,
      "ĠĠĠĠĠĠĠĠĠĠĠĠ": 2875,
      "Ġatom": 2876,
      "Ġattemp": 2877,
      "tern": 2878,
      "tered": 2879,
      "ades": 2880,
      "Ġwithin": 2881,
      "Ġred": 2882,
      "Ġregular": 2883,
      "Ġannoy": 2884,
      "irring": 2885,
      "Ġnote": 2886,
      "ĠMIN": 2887,
      "ĠMiss": 2888,
      "ĠMORE": 2889,
      "ĠMerci": 2890,
      "ĠMorcar": 2891,
      "verybody": 2892,
      "Ġkiss": 2893,
      "ria": 2894,
      "rier": 2895,
      "ĠDO": 2896,
      "ĠThese": 2897,
      "Ġknot": 2898,
      "Ġknife": 2899,
      "Ġneigh": 2900,
      "Ġneither": 2901,
      "Ġsun": 2902,
      "Ġsummer": 2903,
      "ĠSt": 2904,
      "ĠSu": 2905,
      "ĠSha": 2906,
      "ĠSto": 2907,
      "ĠSome": 2908,
      "Ġshill": 2909,
      "Ġshorter": 2910,
      "elled": 2911,
      "Ġlie": 2912,
      "Ġlives": 2913,
      "ppose": 2914,
      "Ġthistle": 2915,
      "ably": 2916,
      "Ġjar": 2917,
      "Ġjaws": 2918,
      "Ġstoop": 2919,
      "Ġstretched": 2920,
      "Ġstamp": 2921,
      "Ġstirring": 2922,
      "ĠWith": 2923,
      "Ġmoder": 2924,
      "ĠCHOR": 2925,
      "ĠCrab": 2926,
      "ĠConqu": 2927,
      "ounds": 2928,
      "Ġago": 2929,
      "Ġagree": 2930,
      "Ġcaused": 2931,
      "Ġknows": 2932,
      "Ġknowing": 2933,
      "Ġwhatever": 2934,
      "Ġoffer": 2935,
      "Ġthoughts": 2936,
      "Ġornam": 2937,
      "Ġsomewhere": 2938,
      "Ġtipto": 2939,
      "Ġvar": 2940,
      "hange": 2941,
      "hantly": 2942,
      "ersault": 2943,
      "Ġyours": 2944,
      "Ġwhose": 2945,
      "ulous": 2946,
      "ĠGAVE": 2947,
      "ilway": 2948,
      "unk": 2949,
      "unimportant": 2950,
      "Ġspoon": 2951,
      "lives": 2952,
      "amine": 2953,
      "phy": 2954,
      "Ġtwist": 2955,
      "Ġtwenty": 2956,
      "Ġconcert": 2957,
      "Ġconstant": 2958,
      "linging": 2959,
      "Ġfeather": 2960,
      "usion": 2961,
      "ĠBES": 2962,
      "ĠRome": 2963,
      "Ġchoice": 2964,
      "Ġchose": 2965,
      "ĠFish": 2966,
      "ĠFIT": 2967,
      "ĠFAT": 2968,
      "ĠFather": 2969,
      "ured": 2970,
      "ĠĠĠĠĠĠĠĠĠĠĠĠĠĠĠĠĠ": 2971,
      "ĠĠĠĠĠĠĠĠĠĠĠĠĠĠĠĠĠĠĠĠĠĠĠĠĠĠĠĠĠĠĠĠ": 2972,
      "Ġalread": 2973,
      "Ġalso": 2974,
      "Ġnowhere": 2975,
      "race": 2976,
      "ract": 2977,
      "raordin": 2978,
      "ared": 2979,
      "ĠLast": 2980,
      "ĠLIT": 2981,
      "arty": 2982,
      "ĠPat": 2983,
      "ĠPig": 2984,
      "ĠPLE": 2985,
      "ĠPray": 2986,
      "ĠPresently": 2987,
      "ĠPenny": 2988,
      "ĠParis": 2989,
      "isted": 2990,
      "istling": 2991,
      "Ġrattling": 2992,
      "Ġplates": 2993,
      "Ġafterwards": 2994,
      "ication": 2995,
      "Ġusing": 2996,
      "Ġremoved": 2997,
      "Ġlonged": 2998,
      "ages": 2999,
      "agine": 3000,
      "Ġlasted": 3001,
      "oming": 3002,
      "Ġcurled": 3003,
      "Ġleaning": 3004,
      "Ġdoors": 3005,
      "Ġmanner": 3006,
      "Ġunroll": 3007,
      "Ġunfolded": 3008,
      "Ġunpleas": 3009,
      "Ġunhappy": 3010,
      "Ġcatching": 3011,
      "ĠNorth": 3012,
      "ĠNext": 3013,
      "ĠNEVER": 3014,
      "Ġtells": 3015,
      "Ġtelling": 3016,
      "ends": 3017,
      "Ġchanging": 3018,
      "Ġchanges": 3019,
      "irely": 3020,
      "Ġwonderful": 3021,
      "rowful": 3022,
      "Ġaddressed": 3023,
      "Ġwaist": 3024,
      "Ġtakes": 3025,
      "Ġclock": 3026,
      "Ġclaws": 3027,
      "Ġflat": 3028,
      "Ġpleasure": 3029,
      "Ġsooner": 3030,
      "Ġundertone": 3031,
      "ĠOne": 3032,
      "ĠOLD": 3033,
      "Ġtreading": 3034,
      "Ġsmile": 3035,
      "Ġsmoking": 3036,
      "Ġpebb": 3037,
      "Ġpicking": 3038,
      "umbled": 3039,
      "umbria": 3040,
      "tains": 3041,
      "Ġolder": 3042,
      "Ġfeeble": 3043,
      "Ġproved": 3044,
      "Ġuseful": 3045,
      "ĠVII": 3046,
      "Ġtruth": 3047,
      "Ġsnatch": 3048,
      "Ġbrown": 3049,
      "Ġbecame": 3050,
      "Ġevening": 3051,
      "Ġexplan": 3052,
      "Ġexperim": 3053,
      "Ġcourtiers": 3054,
      "Ġwatched": 3055,
      "umphantly": 3056,
      "Ġcomes": 3057,
      "Ġcomfort": 3058,
      "Ġcomfits": 3059,
      "Nobody": 3060,
      "Ġapples": 3061,
      "Ġanger": 3062,
      "Ġlefthand": 3063,
      "teenth": 3064,
      "Ġtrick": 3065,
      "Ġtriumphantly": 3066,
      "Ġwants": 3067,
      "Ġpretend": 3068,
      "Ġearls": 3069,
      "Ġearnest": 3070,
      "Ġplaying": 3071,
      "Ġfootstep": 3072,
      "Ġremarkable": 3073,
      "Ġsmallest": 3074,
      "bbed": 3075,
      "Ġscroll": 3076,
      "Ġswimming": 3077,
      "Ġadvance": 3078,
      "Ġadvisable": 3079,
      "Ġfalling": 3080,
      "Ġrude": 3081,
      "Ġrubbing": 3082,
      "Ġhurriedly": 3083,
      "Ġwherever": 3084,
      "Ġcond": 3085,
      "Ġcoax": 3086,
      "Ġcollected": 3087,
      "Ġlearning": 3088,
      "Ġraven": 3089,
      "Ġraving": 3090,
      "Ġraised": 3091,
      "Ġrapidly": 3092,
      "Ġrailway": 3093,
      "Ġresting": 3094,
      "Ġinterrupting": 3095,
      "Ġdirected": 3096,
      "Ġdirectly": 3097,
      "ITE": 3098,
      "Ġmatters": 3099,
      "Ġdishes": 3100,
      "Ġdispute": 3101,
      "Ġshouting": 3102,
      "Ġkeeping": 3103,
      "Ġsneeze": 3104,
      "Ġsneezes": 3105,
      "Ġexecutions": 3106,
      "Ġsisters": 3107,
      "Does": 3108,
      "ief": 3109,
      "uckily": 3110,
      "Ġbrightened": 3111,
      "Ġdistant": 3112,
      "Ġfurrow": 3113,
      "Ġmostly": 3114,
      "Ġplaces": 3115,
      "Ġlearnt": 3116,
      "Ġsinging": 3117,
      "Ġsingers": 3118,
      "Ġblasts": 3119,
      "Ġpigs": 3120,
      "Ġkindly": 3121,
      "Ġcares": 3122,
      "Ġgoldfish": 3123,
      "Ġtrembled": 3124,
      "Ġfancied": 3125,
      "Ġfeelings": 3126,
      "Ġlobster": 3127,
      "tempered": 3128,
      "retching": 3129,
      "Ġbroke": 3130,
      "Ġcarrying": 3131,
      "Ġclever": 3132,
      "Ġnicely": 3133,
      "Ġproud": 3134,
      "Ġpersisted": 3135,
      "Ġhasn": 3136,
      "Ġstruck": 3137,
      "Ġcauldron": 3138,
      "Ġdreadful": 3139,
      "Ġproceed": 3140,
      "Ġdoubtful": 3141,
      "Ġdoubtfully": 3142,
      "while": 3143,
      "which": 3144,
      "Ġdeny": 3145,
      "Ġdenied": 3146,
      "Ġshower": 3147,
      "Ġshowing": 3148,
      "Ġshutting": 3149,
      "Ġusually": 3150,
      "Ġuncommon": 3151,
      "Ġdelighted": 3152,
      "Ġdelightful": 3153,
      "Ġviolent": 3154,
      "duce": 3155,
      "Ġedition": 3156,
      "Ġhate": 3157,
      "Ġhatter": 3158,
      "Ġtaste": 3159,
      "Ġburst": 3160,
      "Ġinvited": 3161,
      "Ġinvitation": 3162,
      "Ġbeating": 3163,
      "Ġexcellent": 3164,
      "aughter": 3165,
      "Ġpresents": 3166,
      "Ġpersonal": 3167,
      "Ġsecondly": 3168,
      "Ġentangled": 3169,
      "Ġentirely": 3170,
      "Ġsqueez": 3171,
      "Ġsigned": 3172,
      "Ġsignif": 3173,
      "Ġwandered": 3174,
      "Ġwandering": 3175,
      "Ġcrying": 3176,
      "Ġmuttered": 3177,
      "Ġnibbled": 3178,
      "Ġthrowing": 3179,
      "ĠHEAR": 3180,
      "Ġsulkily": 3181,
      "ĠWILLIAM": 3182,
      "Ġordering": 3183,
      "Ġextreme": 3184,
      "Ġextraordin": 3185,
      "ĠĠĠĠĠĠĠĠĠĠĠĠĠĠĠĠĠĠĠĠĠĠĠĠĠĠĠĠ": 3186,
      "Ġteacups": 3187,
      "Ġlovely": 3188,
      "Ġsorrowful": 3189,
      "Ġfriends": 3190,
      "Exactly": 3191,
      "Explain": 3192,
      "IDE": 3193,
      "Once": 3194,
      "Only": 3195,
      "hority": 3196,
      "mson": 3197,
      "Ġwildly": 3198,
      "Ġoccasion": 3199,
      "Ġoccurred": 3200,
      "Ġbarrowful": 3201,
      "Ġcupbo": 3202,
      "Ġlocks": 3203,
      "Ġlaughed": 3204,
      "Ġdesper": 3205,
      "Ġyawning": 3206,
      "Ġyawned": 3207,
      "Ġringlets": 3208,
      "Ġquickly": 3209,
      "Ġstarted": 3210,
      "Ġstartled": 3211,
      "Ġconcluded": 3212,
      "Ġconclusion": 3213,
      "Ġencouraging": 3214,
      "Ġflower": 3215,
      "Ġflowers": 3216,
      "Ġsmiling": 3217,
      "Ġsmiled": 3218,
      "Ġcomplain": 3219,
      "BODY": 3220,
      "Suppose": 3221,
      "Twinkle": 3222,
      "examine": 3223,
      "piece": 3224,
      "Ġtumbling": 3225,
      "Ġsending": 3226,
      "Ġblew": 3227,
      "Ġcrimson": 3228,
      "Ġcustody": 3229,
      "Ġmiserable": 3230,
      "Ġmissed": 3231,
      "Ġdrunk": 3232,
      "Ġdinner": 3233,
      "Ġforehead": 3234,
      "Ġgiving": 3235,
      "Ġintroduce": 3236,
      "Ġpinched": 3237,
      "Ġhumbly": 3238,
      "Ġuneasily": 3239,
      "Ġretur": 3240,
      "Ġrelief": 3241,
      "Ġrecovered": 3242,
      "Ġneatly": 3243,
      "Ġabsurd": 3244,
      "ĠQUITE": 3245,
      "Ġsplashing": 3246,
      "ĠLatitude": 3247,
      "ĠLongitude": 3248,
      "Ġarchbish": 3249,
      "Ġclosed": 3250,
      "Ġtrotting": 3251,
      "Ġbranches": 3252,
      "Ġdisappeared": 3253,
      "Ġprisoner": 3254,
      "Ġfront": 3255,
      "Ġbelongs": 3256,
      "Ġsqueaking": 3257,
      "Ġquarrelling": 3258,
      "Ġcontemptuously": 3259,
      "Ġbeautifully": 3260,
      "2021": 3261,
      "Beautiful": 3262,
      "DRINK": 3263,
      "Really": 3264,
      "Speak": 3265,
      "Treacle": 3266,
      "Uglification": 3267,
      "bye": 3268,
      "dwin": 3269,
      "ography": 3270,
      "Ġtaller": 3271,
      "Ġturtles": 3272,
      "Ġauthority": 3273,
      "Ġsensation": 3274,
      "Ġwoman": 3275,
      "itively": 3276,
      "Ġcirc": 3277,
      "Ġcushion": 3278,
      "Ġcucumber": 3279,
      "Ġmonth": 3280,
      "Ġmurder": 3281,
      "Ġmerely": 3282,
      "Ġmilk": 3283,
      "Ġmessages": 3284,
      "Ġmeekly": 3285,
      "Ġlonely": 3286,
      "Ġdancing": 3287,
      "Ġdoth": 3288,
      "Ġfountains": 3289,
      "Ġfashion": 3290,
      "Ġferrets": 3291,
      "Ġsaucepan": 3292,
      "Ġgiddy": 3293,
      "Ġbesides": 3294,
      "Ġpanting": 3295,
      "Ġpurring": 3296,
      "Ġparchment": 3297,
      "Ġthroat": 3298,
      "Ġthousand": 3299,
      "Ġassembled": 3300,
      "Ġriddles": 3301,
      "Ġroyal": 3302,
      "ĠMINE": 3303,
      "ĠMercia": 3304,
      "Ġneighbour": 3305,
      "Ġstamping": 3306,
      "ĠCHORUS": 3307,
      "ĠConqueror": 3308,
      "Ġornamented": 3309,
      "Ġtiptoe": 3310,
      "ĠBEST": 3311,
      "ĠFATHER": 3312,
      "Ġalready": 3313,
      "ĠLITTLE": 3314,
      "ĠPennyworth": 3315,
      "Ġunrolled": 3316,
      "Ġunpleasant": 3317,
      "ĠNorthumbria": 3318,
      "Ġpebbles": 3319,
      "Ġexplanation": 3320,
      "Ġexperiment": 3321,
      "Ġearnestly": 3322,
      "Ġfootsteps": 3323,
      "Ġcoaxing": 3324,
      "Ġeditions": 3325,
      "Ġextremely": 3326,
      "Ġextraordinary": 3327,
      "Ġcupboards": 3328,
      "Ġarchbishop": 3329,
      "\"?'": 3330,
      "')": 3331,
      "):": 3332,
      "):--": 3333,
      ")--`": 3334,
      ".]": 3335,
      ".--`": 3336,
      "10": 3337,
      "11": 3338,
      "24": 3339,
      "26": 3340,
      "30": 3341,
      "500": 3342,
      "65": 3343,
      "865": 3344,
      "?)": 3345,
      "AB": 3346,
      "AL": 3347,
      "An": 3348,
      "At": 3349,
      "Ahe": 3350,
      "ARE": 3351,
      "AIS": 3352,
      "After": 3353,
      "Any": 3354,
      "BE": 3355,
      "Br": 3356,
      "By": 3357,
      "Bir": 3358,
      "Back": 3359,
      "BIT": 3360,
      "Bring": 3361,
      "Boots": 3362,
      "CH": 3363,
      "CI": 3364,
      "CK": 3365,
      "CO": 3366,
      "Co": 3367,
      "Cur": 3368,
      "Certain": 3369,
      "Cheshire": 3370,
      "Chor": 3371,
      "Catch": 3372,
      "Change": 3373,
      "Coming": 3374,
      "Dri": 3375,
      "Dear": 3376,
      "Drink": 3377,
      "DAT": 3378,
      "Digging": 3379,
      "EE": 3380,
      "EY": 3381,
      "Each": 3382,
      "EAT": 3383,
      "EAVE": 3384,
      "EAR": 3385,
      "END": 3386,
      "Everything": 3387,
      "Everybody": 3388,
      "Edwin": 3389,
      "FU": 3390,
      "Fif": 3391,
      "Four": 3392,
      "First": 3393,
      "From": 3394,
      "Fury": 3395,
      "Fetch": 3396,
      "French": 3397,
      "FORE": 3398,
      "GE": 3399,
      "GG": 3400,
      "Ground": 3401,
      "Hj": 3402,
      "Hm": 3403,
      "Ho": 3404,
      "Her": 3405,
      "Had": 3406,
      "Hand": 3407,
      "Hush": 3408,
      "HRU": 3409,
      "IR": 3410,
      "ILE": 3411,
      "Idi": 3412,
      "Jack": 3413,
      "LF": 3414,
      "LU": 3415,
      "Look": 3416,
      "Lea": 3417,
      "Mouse": 3418,
      "Mind": 3419,
      "Mine": 3420,
      "Miss": 3421,
      "Mary": 3422,
      "MAL": 3423,
      "NO": 3424,
      "NT": 3425,
      "Nor": 3426,
      "Nay": 3427,
      "Near": 3428,
      "Nonsense": 3429,
      "OR": 3430,
      "Or": 3431,
      "Ou": 3432,
      "OICE": 3433,
      "ONS": 3434,
      "OCK": 3435,
      "Pat": 3436,
      "Poor": 3437,
      "Prizes": 3438,
      "Pray": 3439,
      "Pepper": 3440,
      "Party": 3441,
      "RS": 3442,
      "RT": 3443,
      "Ru": 3444,
      "Ree": 3445,
      "Right": 3446,
      "ROU": 3447,
      "Race": 3448,
      "Rep": 3449,
      "Read": 3450,
      "ROM": 3451,
      "ROVE": 3452,
      "SQ": 3453,
      "Si": 3454,
      "Sw": 3455,
      "Sit": 3456,
      "Soo": 3457,
      "Sent": 3458,
      "Sto": 3459,
      "Shan": 3460,
      "Some": 3461,
      "Same": 3462,
      "Seal": 3463,
      "Seven": 3464,
      "SHE": 3465,
      "Shall": 3466,
      "SAID": 3467,
      "Sounds": 3468,
      "SONS": 3469,
      "Th": 3470,
      "To": 3471,
      "Ten": 3472,
      "Tut": 3473,
      "Too": 3474,
      "Tal": 3475,
      "Turtle": 3476,
      "THE": 3477,
      "TIS": 3478,
      "THOR": 3479,
      "TCO": 3480,
      "THRU": 3481,
      "UB": 3482,
      "UTHOR": 3483,
      "VER": 3484,
      "VERY": 3485,
      "WE": 3486,
      "Wr": 3487,
      "WIT": 3488,
      "WIM": 3489,
      "WHER": 3490,
      "XT": 3491,
      "YSE": 3492,
      "Zeal": 3493,
      "aly": 3494,
      "ald": 3495,
      "alf": 3496,
      "aked": 3497,
      "aiting": 3498,
      "ales": 3499,
      "apper": 3500,
      "after": 3501,
      "bling": 3502,
      "bury": 3503,
      "baby": 3504,
      "beds": 3505,
      "besides": 3506,
      "cy": 3507,
      "cter": 3508,
      "creat": 3509,
      "cod": 3510,
      "cation": 3511,
      "cular": 3512,
      "cute": 3513,
      "change": 3514,
      "da": 3515,
      "ds": 3516,
      "did": 3517,
      "den": 3518,
      "dged": 3519,
      "dued": 3520,
      "dging": 3521,
      "dgar": 3522,
      "dges": 3523,
      "eh": 3524,
      "ey": 3525,
      "eet": 3526,
      "elf": 3527,
      "eil": 3528,
      "eked": 3529,
      "elt": 3530,
      "either": 3531,
      "emn": 3532,
      "eenth": 3533,
      "eography": 3534,
      "fl": 3535,
      "fr": 3536,
      "fre": 3537,
      "fly": 3538,
      "fan": 3539,
      "found": 3540,
      "fra": 3541,
      "fair": 3542,
      "fetch": 3543,
      "gg": 3544,
      "gn": 3545,
      "gu": 3546,
      "gher": 3547,
      "gust": 3548,
      "gant": 3549,
      "gaged": 3550,
      "ggled": 3551,
      "hr": 3552,
      "hot": 3553,
      "hood": 3554,
      "ia": 3555,
      "iar": 3556,
      "ike": 3557,
      "ial": 3558,
      "ict": 3559,
      "ived": 3560,
      "iper": 3561,
      "iations": 3562,
      "iotic": 3563,
      "ju": 3564,
      "jure": 3565,
      "jury": 3566,
      "joy": 3567,
      "journ": 3568,
      "ka": 3569,
      "kn": 3570,
      "ker": 3571,
      "lv": 3572,
      "len": 3573,
      "lock": 3574,
      "long": 3575,
      "lace": 3576,
      "lence": 3577,
      "lass": 3578,
      "lved": 3579,
      "lause": 3580,
      "life": 3581,
      "lways": 3582,
      "lash": 3583,
      "lmon": 3584,
      "luckily": 3585,
      "mu": 3586,
      "mas": 3587,
      "mar": 3588,
      "mly": 3589,
      "mot": 3590,
      "may": 3591,
      "make": 3592,
      "mom": 3593,
      "mory": 3594,
      "mine": 3595,
      "maid": 3596,
      "master": 3597,
      "mark": 3598,
      "mersault": 3599,
      "mulous": 3600,
      "magine": 3601,
      "now": 3602,
      "nat": 3603,
      "night": 3604,
      "nine": 3605,
      "oil": 3606,
      "oken": 3607,
      "obe": 3608,
      "ogged": 3609,
      "pher": 3610,
      "pea": 3611,
      "pence": 3612,
      "purp": 3613,
      "poin": 3614,
      "pair": 3615,
      "plan": 3616,
      "pret": 3617,
      "pocket": 3618,
      "paws": 3619,
      "pencil": 3620,
      "party": 3621,
      "place": 3622,
      "rh": 3623,
      "rk": 3624,
      "ras": 3625,
      "ror": 3626,
      "rat": 3627,
      "ran": 3628,
      "rad": 3629,
      "ral": 3630,
      "rant": 3631,
      "rus": 3632,
      "riting": 3633,
      "rith": 3634,
      "rges": 3635,
      "rum": 3636,
      "rrh": 3637,
      "su": 3638,
      "sit": 3639,
      "sis": 3640,
      "say": 3641,
      "sour": 3642,
      "some": 3643,
      "som": 3644,
      "school": 3645,
      "shall": 3646,
      "tw": 3647,
      "ton": 3648,
      "tor": 3649,
      "tse": 3650,
      "try": 3651,
      "tell": 3652,
      "tion": 3653,
      "than": 3654,
      "tun": 3655,
      "tra": 3656,
      "tment": 3657,
      "tart": 3658,
      "tic": 3659,
      "tons": 3660,
      "this": 3661,
      "two": 3662,
      "tray": 3663,
      "tip": 3664,
      "tier": 3665,
      "tty": 3666,
      "tales": 3667,
      "und": 3668,
      "uss": 3669,
      "uct": 3670,
      "ubs": 3671,
      "udi": 3672,
      "vas": 3673,
      "vent": 3674,
      "vance": 3675,
      "voking": 3676,
      "venth": 3677,
      "whe": 3678,
      "was": 3679,
      "ward": 3680,
      "wfully": 3681,
      "winkle": 3682,
      "writing": 3683,
      "xactly": 3684,
      "ys": 3685,
      "yly": 3686,
      "yes": 3687,
      "yard": 3688,
      "zy": 3689,
      "zing": 3690,
      "zig": 3691,
      "zag": 3692,
      "Ġ0": 3693,
      "Ġ8": 3694,
      "Ġ9": 3695,
      "Ġir": 3696,
      "Ġest": 3697,
      "Ġign": 3698,
      "ĠUgh": 3699,
      "ĠUglification": 3700,
      "Ġ500": 3701,
      "ĠJack": 3702,
      "ĠZeal": 3703,
      "Ġzig": 3704,
      "Ġtit": 3705,
      "Ġtid": 3706,
      "Ġtut": 3707,
      "Ġtight": 3708,
      "Ġtink": 3709,
      "Ġtul": 3710,
      "Ġtun": 3711,
      "Ġture": 3712,
      "Ġtide": 3713,
      "hest": 3714,
      "Ġache": 3715,
      "Ġavo": 3716,
      "Ġaka": 3717,
      "Ġaudi": 3718,
      "Ġawfully": 3719,
      "Ġson": 3720,
      "Ġsour": 3721,
      "Ġsink": 3722,
      "Ġsear": 3723,
      "Ġseat": 3724,
      "Ġseven": 3725,
      "Ġstern": 3726,
      "inn": 3727,
      "ins": 3728,
      "ined": 3729,
      "inch": 3730,
      "inent": 3731,
      "inion": 3732,
      "inted": 3733,
      "Ġwin": 3734,
      "Ġwer": 3735,
      "Ġwar": 3736,
      "Ġwri": 3737,
      "Ġwear": 3738,
      "Ġwore": 3739,
      "Ġwra": 3740,
      "Ġwep": 3741,
      "Ġwel": 3742,
      "Ġwoke": 3743,
      "Ġwife": 3744,
      "Ġwings": 3745,
      "Ġwider": 3746,
      "Ġwinter": 3747,
      "ouched": 3748,
      "itied": 3749,
      "itated": 3750,
      "Ġodd": 3751,
      "Ġobst": 3752,
      "Ġoint": 3753,
      "Ġoyst": 3754,
      "ndidly": 3755,
      "ndeed": 3756,
      "eris": 3757,
      "eral": 3758,
      "erget": 3759,
      "erved": 3760,
      "erfully": 3761,
      "errily": 3762,
      "hasis": 3763,
      "ingy": 3764,
      "ingle": 3765,
      "ingly": 3766,
      "ress": 3767,
      "really": 3768,
      "reng": 3769,
      "rept": 3770,
      "ression": 3771,
      "Ġbed": 3772,
      "Ġbon": 3773,
      "Ġbent": 3774,
      "Ġbill": 3775,
      "Ġbal": 3776,
      "Ġbound": 3777,
      "Ġball": 3778,
      "Ġbore": 3779,
      "Ġbra": 3780,
      "Ġbough": 3781,
      "Ġbree": 3782,
      "Ġbag": 3783,
      "Ġbone": 3784,
      "Ġbold": 3785,
      "Ġbaw": 3786,
      "Ġbeds": 3787,
      "Ġboon": 3788,
      "Ġbaked": 3789,
      "Ġtoss": 3790,
      "Ġtoast": 3791,
      "Ġtops": 3792,
      "Ġtoff": 3793,
      "Ġtoday": 3794,
      "Ġtowards": 3795,
      "Ġtomor": 3796,
      "Ġtoys": 3797,
      "edies": 3798,
      "Ġcow": 3799,
      "Ġchat": 3800,
      "Ġcent": 3801,
      "Ġcher": 3802,
      "Ġcal": 3803,
      "Ġcard": 3804,
      "Ġcong": 3805,
      "Ġcun": 3806,
      "Ġcra": 3807,
      "Ġcree": 3808,
      "Ġcold": 3809,
      "Ġcraw": 3810,
      "Ġcrawling": 3811,
      "Ġclinging": 3812,
      "Ġceil": 3813,
      "Ġcrept": 3814,
      "Ġmall": 3815,
      "Ġmag": 3816,
      "Ġmeal": 3817,
      "Ġmile": 3818,
      "Ġmerrily": 3819,
      "Ġlit": 3820,
      "Ġlan": 3821,
      "Ġlif": 3822,
      "Ġlim": 3823,
      "Ġlab": 3824,
      "Ġland": 3825,
      "Ġlink": 3826,
      "Ġlam": 3827,
      "Ġlest": 3828,
      "Ġlose": 3829,
      "Ġlod": 3830,
      "Ġlull": 3831,
      "Ġlately": 3832,
      "Ġlater": 3833,
      "Ġloose": 3834,
      "Ġlines": 3835,
      "Ġleng": 3836,
      "Ġlaughter": 3837,
      "ids": 3838,
      "idget": 3839,
      "ening": 3840,
      "enced": 3841,
      "Ġdil": 3842,
      "Ġdun": 3843,
      "Ġdried": 3844,
      "Ġdig": 3845,
      "Ġdra": 3846,
      "Ġdep": 3847,
      "Ġdive": 3848,
      "Ġdeat": 3849,
      "Ġdates": 3850,
      "Ġdie": 3851,
      "Ġduck": 3852,
      "Ġdiam": 3853,
      "Ġdied": 3854,
      "Ġdaint": 3855,
      "Ġdaughter": 3856,
      "lls": 3857,
      "llar": 3858,
      "Ġfit": 3859,
      "Ġfis": 3860,
      "Ġfle": 3861,
      "Ġfat": 3862,
      "Ġfury": 3863,
      "Ġfive": 3864,
      "Ġfool": 3865,
      "Ġfeared": 3866,
      "Ġfie": 3867,
      "Ġfix": 3868,
      "Ġfail": 3869,
      "Ġfading": 3870,
      "Ġfits": 3871,
      "Ġfitted": 3872,
      "Ġfrying": 3873,
      "Ġfixed": 3874,
      "Ġflinging": 3875,
      "Ġfumbled": 3876,
      "Ġfidget": 3877,
      "cess": 3878,
      "cept": 3879,
      "ceived": 3880,
      "Ġheap": 3881,
      "Ġhearts": 3882,
      "Ġhearth": 3883,
      "Ġheels": 3884,
      "Ġhedges": 3885,
      "Ġsave": 3886,
      "Ġsage": 3887,
      "Ġsaves": 3888,
      "Ġsauc": 3889,
      "Ġsalmon": 3890,
      "ony": 3891,
      "onoun": 3892,
      "ases": 3893,
      "asure": 3894,
      "aside": 3895,
      "asped": 3896,
      "isit": 3897,
      "isitively": 3898,
      "owdered": 3899,
      "ĠAT": 3900,
      "ĠAh": 3901,
      "ĠAust": 3902,
      "ĠAmb": 3903,
      "ĠAthe": 3904,
      "ĠAllow": 3905,
      "ĠAlas": 3906,
      "ĠAUTHOR": 3907,
      "ĠAda": 3908,
      "ĠAlways": 3909,
      "ĠArith": 3910,
      "arroll": 3911,
      "arrum": 3912,
      "Ġgay": 3913,
      "Ġgain": 3914,
      "Ġgall": 3915,
      "Ġgather": 3916,
      "Ġgaz": 3917,
      "Ġgames": 3918,
      "Ġnast": 3919,
      "Ġnest": 3920,
      "Ġshedd": 3921,
      "Ġsheep": 3922,
      "Ġshelves": 3923,
      "Ġshepher": 3924,
      "ley": 3925,
      "leave": 3926,
      "lete": 3927,
      "lendidly": 3928,
      "orting": 3929,
      "orant": 3930,
      "orked": 3931,
      "Ġincl": 3932,
      "Ġinso": 3933,
      "Ġinwards": 3934,
      "Ġinside": 3935,
      "Ġinsult": 3936,
      "Ġinjure": 3937,
      "Ġincess": 3938,
      "Ġbeast": 3939,
      "Ġbelt": 3940,
      "Ġbells": 3941,
      "Ġye": 3942,
      "Ġyel": 3943,
      "Ġyards": 3944,
      "Ġyears": 3945,
      "Ġyelled": 3946,
      "Ġpet": 3947,
      "Ġpite": 3948,
      "Ġpour": 3949,
      "Ġpink": 3950,
      "Ġpast": 3951,
      "Ġpant": 3952,
      "Ġpace": 3953,
      "Ġpence": 3954,
      "Ġpine": 3955,
      "Ġpurp": 3956,
      "Ġpati": 3957,
      "Ġpush": 3958,
      "Ġpriz": 3959,
      "Ġpaint": 3960,
      "Ġpoured": 3961,
      "Ġpounds": 3962,
      "Ġpract": 3963,
      "Ġpitied": 3964,
      "Ġpowdered": 3965,
      "sel": 3966,
      "secute": 3967,
      "Ġthin": 3968,
      "Ġthir": 3969,
      "Ġthick": 3970,
      "ĠII": 3971,
      "ĠIN": 3972,
      "ĠIV": 3973,
      "ĠIX": 3974,
      "ĠImp": 3975,
      "ĠIII": 3976,
      "ĠITS": 3977,
      "ĠINS": 3978,
      "ĠImagine": 3979,
      "ĠIndeed": 3980,
      "ans": 3981,
      "anary": 3982,
      "Ġwaste": 3983,
      "ots": 3984,
      "othing": 3985,
      "otam": 3986,
      "otect": 3987,
      "Ġones": 3988,
      "Ġonion": 3989,
      "verdict": 3990,
      "metic": 3991,
      "Ġhid": 3992,
      "Ġhig": 3993,
      "Ġhide": 3994,
      "Ġhush": 3995,
      "Ġhipp": 3996,
      "Ġhund": 3997,
      "ldom": 3998,
      "Ġeel": 3999,
      "Ġeels": 4000,
      "!')": 4001,
      "stood": 4002,
      "storm": 4003,
      "stance": 4004,
      "stery": 4005,
      "stairs": 4006,
      "ĠTri": 4007,
      "ĠTea": 4008,
      "ĠTill": 4009,
      "ĠTake": 4010,
      "ĠTHA": 4011,
      "ĠTable": 4012,
      "ĠTears": 4013,
      "ĠTIT": 4014,
      "ĠTarts": 4015,
      "ĠTurn": 4016,
      "ĠTRU": 4017,
      "ĠTale": 4018,
      "ĠTXT": 4019,
      "ĠTwinkle": 4020,
      "Ġthatched": 4021,
      "--(": 4022,
      "--]": 4023,
      "oosing": 4024,
      "chop": 4025,
      "chines": 4026,
      "chief": 4027,
      "urry": 4028,
      "urried": 4029,
      "Ġsob": 4030,
      "Ġsolid": 4031,
      "Ġsobbed": 4032,
      "Ġsomersault": 4033,
      "Ġsoothing": 4034,
      "entiet": 4035,
      "Ġrock": 4036,
      "Ġrus": 4037,
      "Ġrop": 4038,
      "Ġrise": 4039,
      "Ġrumb": 4040,
      "Ġraw": 4041,
      "Ġrich": 4042,
      "Ġriddle": 4043,
      "Ġroots": 4044,
      "Ġrising": 4045,
      "Ġroughly": 4046,
      "Ġripp": 4047,
      "Ġrises": 4048,
      "Ġriper": 4049,
      "eth": 4050,
      "ets": 4051,
      "ettle": 4052,
      "etween": 4053,
      "Ġwits": 4054,
      "Ġate": 4055,
      "Ġattempt": 4056,
      "key": 4057,
      "kely": 4058,
      "ads": 4059,
      "aders": 4060,
      "advance": 4061,
      "Ġrefus": 4062,
      "Ġreeds": 4063,
      "Ġrearing": 4064,
      "Ġresult": 4065,
      "Ġreduced": 4066,
      "Ġrefre": 4067,
      "Ġresour": 4068,
      "Ġreceived": 4069,
      ".')": 4070,
      "Ġanci": 4071,
      "irt": 4072,
      "irons": 4073,
      "irited": 4074,
      "eel": 4075,
      "cket": 4076,
      "ckled": 4077,
      "ckrrh": 4078,
      "ĠMy": 4079,
      "ĠMad": 4080,
      "ĠMay": 4081,
      "ĠMind": 4082,
      "ĠMag": 4083,
      "ĠMult": 4084,
      "ĠMAR": 4085,
      "ĠMyst": 4086,
      "ĠMILE": 4087,
      "ĠMYSE": 4088,
      "Ġallow": 4089,
      "ĠHas": 4090,
      "ĠHis": 4091,
      "ĠHim": 4092,
      "ĠHard": 4093,
      "ĠHush": 4094,
      "ĠHAT": 4095,
      "ĠHIS": 4096,
      "ĠHAD": 4097,
      "ĠHIGH": 4098,
      "ĠHalf": 4099,
      "Ġwhistling": 4100,
      "?',": 4101,
      "Ġking": 4102,
      "Ġkettle": 4103,
      "rived": 4104,
      "ribly": 4105,
      "rief": 4106,
      "riotic": 4107,
      "Ġfork": 4108,
      "Ġform": 4109,
      "Ġforwards": 4110,
      "Ġfortun": 4111,
      "eam": 4112,
      "ealed": 4113,
      "eaography": 4114,
      "ifting": 4115,
      "imb": 4116,
      "ainly": 4117,
      "Ġdoze": 4118,
      "Ġdodged": 4119,
      "Ġdozing": 4120,
      "ĠDist": 4121,
      "ĠDOT": 4122,
      "ĠDigging": 4123,
      "ĠDinn": 4124,
      "ĠDeris": 4125,
      "Ġupright": 4126,
      "Ġupstairs": 4127,
      "Ġknown": 4128,
      "Ġknuck": 4129,
      "Ġknelt": 4130,
      "quest": 4131,
      "owned": 4132,
      "rysal": 4133,
      "Ġneeds": 4134,
      "Ġsuet": 4135,
      "Ġsugar": 4136,
      "ĠSing": 4137,
      "ĠSir": 4138,
      "ĠSee": 4139,
      "ĠSOU": 4140,
      "ĠSerpent": 4141,
      "ĠSIT": 4142,
      "ĠStory": 4143,
      "ĠSHO": 4144,
      "ĠStill": 4145,
      "ĠShall": 4146,
      "ĠSilence": 4147,
      "ĠSAID": 4148,
      "ĠSends": 4149,
      "ĠSLU": 4150,
      "ĠSWIM": 4151,
      "ĠSeaography": 4152,
      "Ġshock": 4153,
      "Ġshiny": 4154,
      "Ġshiver": 4155,
      "Ġshining": 4156,
      "Ġshyly": 4157,
      "Ġshingle": 4158,
      "Ġshifting": 4159,
      "alk": 4160,
      "always": 4161,
      "elly": 4162,
      "Ġliving": 4163,
      "Ġlips": 4164,
      "Ġlikes": 4165,
      "Ġlicking": 4166,
      "Ġbuttons": 4167,
      "ppress": 4168,
      "rove": 4169,
      "roquet": 4170,
      "roots": 4171,
      "rocket": 4172,
      "ionately": 4173,
      "Ġjour": 4174,
      "Ġjaw": 4175,
      "Ġjoy": 4176,
      "Ġjogged": 4177,
      "Ġjelly": 4178,
      "Ġmudd": 4179,
      "Ġseeing": 4180,
      "andy": 4181,
      "andum": 4182,
      "Ġquiver": 4183,
      "Ġstar": 4184,
      "Ġstock": 4185,
      "Ġstup": 4186,
      "Ġstate": 4187,
      "Ġstation": 4188,
      "Ġstool": 4189,
      "Ġstiff": 4190,
      "Ġstead": 4191,
      "Ġstretching": 4192,
      "Ġstingy": 4193,
      "Ġstreng": 4194,
      "Ġsteam": 4195,
      "Ġstalk": 4196,
      "Ġmeat": 4197,
      "Ġmemor": 4198,
      "Ġmemory": 4199,
      "Ġmeasure": 4200,
      "ĠWe": 4201,
      "ĠWas": 4202,
      "ĠWAT": 4203,
      "ĠWrit": 4204,
      "ĠWAIS": 4205,
      "ĠWaiting": 4206,
      "Ġable": 4207,
      "Ġabide": 4208,
      "Ġmoon": 4209,
      "Ġbegged": 4210,
      "Ġhiss": 4211,
      "Ġhistor": 4212,
      "ĠCOU": 4213,
      "ĠCUR": 4214,
      "ĠCanter": 4215,
      "ĠChr": 4216,
      "ĠClass": 4217,
      "ĠCoil": 4218,
      "ĠCarroll": 4219,
      "ĠCanary": 4220,
      "ĠCroquet": 4221,
      "Ġdownwards": 4222,
      "Ġdownward": 4223,
      "ightest": 4224,
      "Ġagony": 4225,
      "Ġcaper": 4226,
      "Ġcamom": 4227,
      "Ġcackled": 4228,
      "ourite": 4229,
      "Ġoneself": 4230,
      "inking": 4231,
      "Ġnodd": 4232,
      "Ġnoises": 4233,
      "ĠQuick": 4234,
      "Ġsomeone": 4235,
      "Ġsomehow": 4236,
      "Ġtie": 4237,
      "Ġtied": 4238,
      "Ġtipped": 4239,
      "Ġgrant": 4240,
      "Ġgrace": 4241,
      "Ġgraz": 4242,
      "Ġgravy": 4243,
      "Ġgrumbled": 4244,
      "Ġvul": 4245,
      "Ġvag": 4246,
      "Ġvine": 4247,
      "Ġvote": 4248,
      "ĠQueens": 4249,
      "ĠKING": 4250,
      "ĠKNO": 4251,
      "inding": 4252,
      "orty": 4253,
      "usts": 4254,
      "ustom": 4255,
      "ustered": 4256,
      "Ġexam": 4257,
      "Ġexist": 4258,
      "Ġexact": 4259,
      "Ġwhom": 4260,
      "ĠGo": 4261,
      "ĠGood": 4262,
      "ĠGame": 4263,
      "ĠGram": 4264,
      "ĠGeography": 4265,
      "ĠGrief": 4266,
      "ilt": 4267,
      "iliar": 4268,
      "ung": 4269,
      "until": 4270,
      "unless": 4271,
      "ĠKings": 4272,
      "nel": 4273,
      "never": 4274,
      "neath": 4275,
      "Ġspot": 4276,
      "Ġspell": 4277,
      "Ġspite": 4278,
      "Ġsprawling": 4279,
      "Ġspeed": 4280,
      "Ġspades": 4281,
      "Ġsplash": 4282,
      "Ġspoken": 4283,
      "Ġsplendidly": 4284,
      "Ġcannot": 4285,
      "Ġcanvas": 4286,
      "Ġwhiles": 4287,
      "liest": 4288,
      "living": 4289,
      "lication": 4290,
      "likely": 4291,
      "amour": 4292,
      "amation": 4293,
      "Ġanywhere": 4294,
      "Ġtwelf": 4295,
      "Ġtwentiet": 4296,
      "Ġconsent": 4297,
      "Ġconsult": 4298,
      "Ġconquest": 4299,
      "Ġafore": 4300,
      "Ġaffor": 4301,
      "Ġaffect": 4302,
      "Ġaffair": 4303,
      "Ġworm": 4304,
      "Ġworry": 4305,
      "Ġworried": 4306,
      "Ġways": 4307,
      "things": 4308,
      "ushing": 4309,
      "usation": 4310,
      "usually": 4311,
      "ĠBe": 4312,
      "ĠBUS": 4313,
      "ĠBecause": 4314,
      "ĠBOOT": 4315,
      "ĠBesides": 4316,
      "ĠBetween": 4317,
      "ĠRun": 4318,
      "ĠRET": 4319,
      "ĠRED": 4320,
      "ĠRIGH": 4321,
      "ĠRAB": 4322,
      "Ġchoke": 4323,
      "Ġchuck": 4324,
      "Ġchoking": 4325,
      "Ġchief": 4326,
      "Ġchoosing": 4327,
      "Ġchrysal": 4328,
      "ĠFury": 4329,
      "ĠFainting": 4330,
      "ĠFrog": 4331,
      "ĠFOOT": 4332,
      "ĠFrance": 4333,
      "ĠFEND": 4334,
      "ĠFROM": 4335,
      "ĠForty": 4336,
      "Ġtheirs": 4337,
      "uredly": 4338,
      "ishly": 4339,
      "ĠĠĠĠĠĠĠĠĠĠĠĠĠĠĠĠĠĠĠĠĠĠĠĠĠ": 4340,
      "igand": 4341,
      "igently": 4342,
      "Ġaltern": 4343,
      "Ġaltered": 4344,
      "acking": 4345,
      "racter": 4346,
      "Ġ\"'": 4347,
      "Ġ\"--": 4348,
      "Ġpop": 4349,
      "Ġpoky": 4350,
      "Ġpope": 4351,
      "Ġpoker": 4352,
      "Ġhowled": 4353,
      "iouser": 4354,
      "Ġshare": 4355,
      "Ġshake": 4356,
      "Ġshared": 4357,
      "Ġshade": 4358,
      "Ġshape": 4359,
      "Their": 4360,
      "ĠLittle": 4361,
      "ĠLau": 4362,
      "ĠLew": 4363,
      "ĠLac": 4364,
      "ĠLond": 4365,
      "ĠLES": 4366,
      "ĠLOVE": 4367,
      "ĠLuckily": 4368,
      "ĠLEAVE": 4369,
      "ĠLike": 4370,
      "Ġjustice": 4371,
      "ormous": 4372,
      "ormans": 4373,
      "Ġoverhead": 4374,
      "Ġovercome": 4375,
      "Ġlark": 4376,
      "Ġneverthe": 4377,
      "ments": 4378,
      "ĠPER": 4379,
      "ĠPool": 4380,
      "ĠPRE": 4381,
      "ĠPoor": 4382,
      "ĠPlease": 4383,
      "ĠPrizes": 4384,
      "ĠPepper": 4385,
      "ĠPOCK": 4386,
      "ĠPROVE": 4387,
      "ĠPUB": 4388,
      "ĠPuss": 4389,
      "ĠPinch": 4390,
      "Ġturkey": 4391,
      "Ġarrow": 4392,
      "Ġarran": 4393,
      "Ġarrived": 4394,
      "istmas": 4395,
      "ERE": 4396,
      "OUS": 4397,
      "Ġbacks": 4398,
      "Ġmineral": 4399,
      "Ġrats": 4400,
      "Ġrattle": 4401,
      "Ġplac": 4402,
      "Ġplenty": 4403,
      "Ġplainly": 4404,
      "ics": 4405,
      "iculous": 4406,
      "option": 4407,
      "opotam": 4408,
      "Ġeyel": 4409,
      "Ġusurp": 4410,
      "Ġremedies": 4411,
      "Ġreminding": 4412,
      "Ġgloom": 4413,
      "Ġglaring": 4414,
      "Ġglanced": 4415,
      "Ġhandwriting": 4416,
      "agree": 4417,
      "Ġcurly": 4418,
      "Ġcurving": 4419,
      "Ġcurtain": 4420,
      "Ġcurls": 4421,
      "Ġcurrant": 4422,
      "Ġcurtse": 4423,
      "upon": 4424,
      "xts": 4425,
      "xteenth": 4426,
      "Ġleant": 4427,
      "Ġleading": 4428,
      "Ġleaders": 4429,
      "Ġdoorway": 4430,
      "Ġmanners": 4431,
      "Ġmanaging": 4432,
      "Ġunable": 4433,
      "Ġunimportant": 4434,
      "Ġunless": 4435,
      "Ġunjust": 4436,
      "Ġunwill": 4437,
      "Ġunlock": 4438,
      "Ġuntw": 4439,
      "Ġunusually": 4440,
      "Ġrightly": 4441,
      "Ġrighthand": 4442,
      "Ġcattle": 4443,
      "Ġcaterpillar": 4444,
      "ĠNO": 4445,
      "ĠNever": 4446,
      "ĠNew": 4447,
      "ĠNile": 4448,
      "ĠNumber": 4449,
      "ĠNEAR": 4450,
      "ĠNormans": 4451,
      "Ġgrowling": 4452,
      "Ġgrowled": 4453,
      "Ġgrowls": 4454,
      "ending": 4455,
      "Ġbother": 4456,
      "Ġchanced": 4457,
      "ired": 4458,
      "Ġwondered": 4459,
      "there": 4460,
      "Ġengra": 4461,
      "Ġengaged": 4462,
      "Ġenjoy": 4463,
      "Ġenerget": 4464,
      "Ġenormous": 4465,
      "Ġadding": 4466,
      "Ġaddressing": 4467,
      "Ġwait": 4468,
      "Ġclapp": 4469,
      "Ġclubs": 4470,
      "Ġclasped": 4471,
      "Ġclimb": 4472,
      "Ġclamour": 4473,
      "Ġflown": 4474,
      "Ġflock": 4475,
      "Ġflame": 4476,
      "Ġflapp": 4477,
      "Ġflav": 4478,
      "Ġflutter": 4479,
      "Ġflashed": 4480,
      "Ġflapper": 4481,
      "Ġflurry": 4482,
      "Ġflustered": 4483,
      "Ġflung": 4484,
      "Ġpleasing": 4485,
      "Ġpleases": 4486,
      "Ġpleasant": 4487,
      "Ġpleasanter": 4488,
      "Ġunderstood": 4489,
      "Ġunderneath": 4490,
      "ĠOur": 4491,
      "Ġteaching": 4492,
      "Ġteapot": 4493,
      "Ġfinds": 4494,
      "ĠYET": 4495,
      "Ġtremulous": 4496,
      "Ġthank": 4497,
      "Ġthanked": 4498,
      "Ġsmoke": 4499,
      "Ġdressed": 4500,
      "ĠSoon": 4501,
      "Ġmeanwhile": 4502,
      "ĠEven": 4503,
      "ĠEither": 4504,
      "ĠEVE": 4505,
      "ĠEls": 4506,
      "ĠEvid": 4507,
      "ĠEND": 4508,
      "ĠEverything": 4509,
      "ĠEverybody": 4510,
      "ĠEdwin": 4511,
      "ĠESQ": 4512,
      "ĠEVER": 4513,
      "ĠEdgar": 4514,
      "ĠExactly": 4515,
      "Ġpegs": 4516,
      "Ġpeering": 4517,
      "Ġpigeon": 4518,
      "Ġreadily": 4519,
      "getable": 4520,
      "Ġmaps": 4521,
      "Ġmachines": 4522,
      "Ġpaused": 4523,
      "Ġpuff": 4524,
      "Ġhappy": 4525,
      "Ġchildhood": 4526,
      "Ġslightest": 4527,
      "Ġwalrus": 4528,
      "Ġopinion": 4529,
      "Ġfanning": 4530,
      "Ġfanned": 4531,
      "ĠTHROU": 4532,
      "ĠTHERE": 4533,
      "ĠTherefore": 4534,
      "Ġcalling": 4535,
      "Ġsettle": 4536,
      "Ġsetting": 4537,
      "Ġoldest": 4538,
      "Ġfeebly": 4539,
      "Ġprove": 4540,
      "Ġproves": 4541,
      "Ġpropo": 4542,
      "Ġprodu": 4543,
      "Ġproduced": 4544,
      "Ġprovoking": 4545,
      "Ġprosecute": 4546,
      "Ġharm": 4547,
      "Ġhouses": 4548,
      "Ġhousemaid": 4549,
      "Ġeats": 4550,
      "Ġeating": 4551,
      "Ġeaten": 4552,
      "Ġcuriouser": 4553,
      "ĠVI": 4554,
      "ĠVery": 4555,
      "ĠVOICE": 4556,
      "ĠVisit": 4557,
      "Ġtramp": 4558,
      "Ġtrusts": 4559,
      "Ġtimo": 4560,
      "Ġsnout": 4561,
      "Ġsnapp": 4562,
      "Ġsnorting": 4563,
      "Ġbrain": 4564,
      "Ġbrass": 4565,
      "Ġbrother": 4566,
      "Ġbrush": 4567,
      "Ġbristling": 4568,
      "Ġbrushing": 4569,
      "Ġloving": 4570,
      "Ġlosing": 4571,
      "Ġinterest": 4572,
      "Ġbecoming": 4573,
      "Ġpermitted": 4574,
      "Ġexpected": 4575,
      "Ġexpressing": 4576,
      "Ġexpression": 4577,
      "Ġexecute": 4578,
      "Ġexecutes": 4579,
      "kespea": 4580,
      "Ġwaters": 4581,
      "Ġcrocod": 4582,
      "Ġfinishing": 4583,
      "Ġending": 4584,
      "ddenly": 4585,
      "shore": 4586,
      "shments": 4587,
      "Ġbitter": 4588,
      "Ġcomfortable": 4589,
      "Ġcommon": 4590,
      "Ġcommot": 4591,
      "Ġlower": 4592,
      "Ġlowing": 4593,
      "Ġlessen": 4594,
      "Ġguard": 4595,
      "Ġguilt": 4596,
      "Ġparts": 4597,
      "Ġpartner": 4598,
      "Ġpartners": 4599,
      "Ġhaste": 4600,
      "Ġsupple": 4601,
      "shelves": 4602,
      "though": 4603,
      "three": 4604,
      "thday": 4605,
      "Ġidiotic": 4606,
      "Ġapplause": 4607,
      "Ġappealed": 4608,
      "Ġsits": 4609,
      "Ġfarm": 4610,
      "Ġfarther": 4611,
      "Ġfarmer": 4612,
      "texts": 4613,
      "Ġairs": 4614,
      "Ġlistened": 4615,
      "Ġpressing": 4616,
      "Ġpretty": 4617,
      "Ġprevent": 4618,
      "Ġpretexts": 4619,
      "Ġpassing": 4620,
      "Ġthrown": 4621,
      "Ġthrone": 4622,
      "ĠHeads": 4623,
      "Ġplayed": 4624,
      "Ġfootmen": 4625,
      "Ġremembering": 4626,
      "ointment": 4627,
      "Ġimpati": 4628,
      "Ġimpert": 4629,
      "Ġaccept": 4630,
      "Ġscolded": 4631,
      "Ġscale": 4632,
      "Ġscram": 4633,
      "Ġscaly": 4634,
      "Ġscrat": 4635,
      "Ġsweet": 4636,
      "Ġsizes": 4637,
      "Ġmorsel": 4638,
      "Ġleap": 4639,
      "Ġleaving": 4640,
      "Ġanswers": 4641,
      "ERYBODY": 4642,
      "Ġclosely": 4643,
      "Ġpuzzle": 4644,
      "Ġhappening": 4645,
      "Ġspeaker": 4646,
      "Ġadvice": 4647,
      "Ġadvise": 4648,
      "Ġmayn": 4649,
      "Ġmaybe": 4650,
      "Ġbeak": 4651,
      "Ġrubbed": 4652,
      "Ġruden": 4653,
      "Ġwhistle": 4654,
      "Ġshrimp": 4655,
      "Ġshrieked": 4656,
      "Ġqueerest": 4657,
      "Ġhandsome": 4658,
      "Ġwhereupon": 4659,
      "Ġbirthday": 4660,
      "Ġbusy": 4661,
      "Ġcost": 4662,
      "Ġcoast": 4663,
      "Ġcrab": 4664,
      "Ġcrashed": 4665,
      "Ġcrouched": 4666,
      "Ġdeepest": 4667,
      "Ġaskance": 4668,
      "Ġrapped": 4669,
      "Ġraising": 4670,
      "Ġsharing": 4671,
      "Ġsharks": 4672,
      "Ġglobe": 4673,
      "Ġhurrying": 4674,
      "ĠTHEN": 4675,
      "ĠTHEY": 4676,
      "ĠTHESE": 4677,
      "ĠTHEIR": 4678,
      "Ġinterrupt": 4679,
      "fortably": 4680,
      "Ġteases": 4681,
      "Ġteeth": 4682,
      "Ġminding": 4683,
      "Ġminded": 4684,
      "Ġdouble": 4685,
      "Ġdisgust": 4686,
      "Ġdismay": 4687,
      "Ġdisobe": 4688,
      "Ġdisagree": 4689,
      "Ġhelped": 4690,
      "Ġhelpless": 4691,
      "Ġsoldier": 4692,
      "Ġreasons": 4693,
      "Ġgrins": 4694,
      "Ġgrinning": 4695,
      "Ġcontent": 4696,
      "Ġcontrad": 4697,
      "Ġconversations": 4698,
      "Ġsneezed": 4699,
      "Ġtrials": 4700,
      "Ġlisteners": 4701,
      "Ġbooks": 4702,
      "Ġbookmark": 4703,
      "Ġcheap": 4704,
      "Ġcheek": 4705,
      "Ġcheated": 4706,
      "Ġcheerfully": 4707,
      "Ġmarched": 4708,
      "Ġfurious": 4709,
      "Ġfuriously": 4710,
      "Ġfrighten": 4711,
      "Ġbelieved": 4712,
      "ppery": 4713,
      "Ġtwinkled": 4714,
      "Whoever": 4715,
      "Ġdreamy": 4716,
      "Ġdreaming": 4717,
      "Ġdreamed": 4718,
      "Ġcroqueting": 4719,
      "Ġcroqueted": 4720,
      "Ġlearned": 4721,
      "Ġdoubling": 4722,
      "Ġdoubled": 4723,
      "Ġreasonable": 4724,
      "apers": 4725,
      "Ġseverity": 4726,
      "Ġwooden": 4727,
      "Ġoppos": 4728,
      "Ġblown": 4729,
      "Ġblame": 4730,
      "Ġblades": 4731,
      "Ġblacking": 4732,
      "ĠAntip": 4733,
      "Ġhoped": 4734,
      "Ġnoticing": 4735,
      "Ġsubmitted": 4736,
      "Ġsubdued": 4737,
      "Ġworks": 4738,
      "Ġuncivil": 4739,
      "Ġuncorked": 4740,
      "Ġtremble": 4741,
      "Ġfancying": 4742,
      "Ġexplained": 4743,
      "onds": 4744,
      "Ġourselves": 4745,
      "Ġsentenced": 4746,
      "Ġbathing": 4747,
      "Ġcarry": 4748,
      "Ġcarrier": 4749,
      "Ġclean": 4750,
      "Ġcleared": 4751,
      "Ġdelay": 4752,
      "Ġdrawing": 4753,
      "Ġprinted": 4754,
      "Ġpronoun": 4755,
      "Ġprotect": 4756,
      "Ġrosetree": 4757,
      "Ġstrings": 4758,
      "amingoes": 4759,
      "Ġlargest": 4760,
      "ĠYOURS": 4761,
      "Ġaccustom": 4762,
      "Ġaccusation": 4763,
      "Ġmorals": 4764,
      "!\"?'": 4765,
      "apple": 4766,
      "Ġsecret": 4767,
      "Ġlouder": 4768,
      "Ġdenying": 4769,
      "Ġdenies": 4770,
      "Ġdenial": 4771,
      "Ġdrop": 4772,
      "Ġdropping": 4773,
      "Ġfourth": 4774,
      "Ġbeloved": 4775,
      "Ġevidently": 4776,
      "ĠWHATEVER": 4777,
      "Ġexclamation": 4778,
      "Ġconsider": 4779,
      "Ġchimneys": 4780,
      "Ġargued": 4781,
      "Ġargue": 4782,
      "ĠNobody": 4783,
      "Ġdifficulties": 4784,
      "Ġscreaming": 4785,
      "Ġsubjects": 4786,
      "Ġuncomfortably": 4787,
      "Ġpardoned": 4788,
      "Ġviolence": 4789,
      "ĠEngland": 4790,
      "ASE": 4791,
      "Wouldn": 4792,
      "Ġeduc": 4793,
      "Ġhatching": 4794,
      "Ġtastes": 4795,
      "Ġsorry": 4796,
      "Ġschoolroom": 4797,
      "Ġburning": 4798,
      "Ġcutting": 4799,
      "Ġdaresay": 4800,
      "Ġgrew": 4801,
      "Ġgrey": 4802,
      "Ġinvent": 4803,
      "Ġinvented": 4804,
      "ĠInvo": 4805,
      "Ġhollow": 4806,
      "Ġholid": 4807,
      "Ġegg": 4808,
      "Ġrabbits": 4809,
      "Ġkneel": 4810,
      "Ġbuttered": 4811,
      "Ġbuttercup": 4812,
      "Ġbutterfly": 4813,
      "Ġstays": 4814,
      "Ġstanding": 4815,
      "Ġflamingoes": 4816,
      "ĠOnce": 4817,
      "ĠOnly": 4818,
      "Ġpicture": 4819,
      "Ġpictured": 4820,
      "Ġpairs": 4821,
      "Ġpresented": 4822,
      "Ġwhispers": 4823,
      "Ġshrieks": 4824,
      "Ġsimpleton": 4825,
      "Ġprocessions": 4826,
      "ANGE": 4827,
      "ARD": 4828,
      "HOW": 4829,
      "NED": 4830,
      "Soles": 4831,
      "begin": 4832,
      "course": 4833,
      "however": 4834,
      "spirited": 4835,
      "spapers": 4836,
      "Ġentrance": 4837,
      "Ġimmense": 4838,
      "Ġwander": 4839,
      "Ġ`\"--": 4840,
      "Ġbowing": 4841,
      "Ġbanquet": 4842,
      "Ġboxed": 4843,
      "Ġcorners": 4844,
      "Ġledge": 4845,
      "Ġladder": 4846,
      "Ġdrinking": 4847,
      "Ġfigures": 4848,
      "Ġfireplace": 4849,
      "Ġnatured": 4850,
      "Ġindignant": 4851,
      "Ġhonest": 4852,
      "Ġattends": 4853,
      "Ġattended": 4854,
      "Ġreaching": 4855,
      "Ġknocked": 4856,
      "Ġnewspapers": 4857,
      "Ġjudging": 4858,
      "Ġstole": 4859,
      "Ġstopping": 4860,
      "Ġsticks": 4861,
      "ĠWASHING": 4862,
      "Ġofficer": 4863,
      "Ġgrunt": 4864,
      "Ġvanishing": 4865,
      "Ġextras": 4866,
      "Ġplanning": 4867,
      "Ġremaining": 4868,
      "Ġloveliest": 4869,
      "Ġfellows": 4870,
      "Ġhopeful": 4871,
      "Ġhopeless": 4872,
      "Ġarguments": 4873,
      "Ġsorrows": 4874,
      "Before": 4875,
      "Behead": 4876,
      "Begin": 4877,
      "ETHING": 4878,
      "EVERYBODY": 4879,
      "TSIDE": 4880,
      "TSEY": 4881,
      "books": 4882,
      "coat": 4883,
      "horse": 4884,
      "whenever": 4885,
      "Ġterms": 4886,
      "Ġterrier": 4887,
      "Ġterror": 4888,
      "Ġterribly": 4889,
      "Ġslippery": 4890,
      "Ġweeks": 4891,
      "Ġoblong": 4892,
      "Ġbarking": 4893,
      "Ġbarley": 4894,
      "Ġlocked": 4895,
      "Ġlaugh": 4896,
      "Ġlaughing": 4897,
      "Ġdespair": 4898,
      "Ġdeserved": 4899,
      "Ġdarkness": 4900,
      "Ġflying": 4901,
      "Ġfills": 4902,
      "ĠAdvice": 4903,
      "Ġbeheading": 4904,
      "Ġpattern": 4905,
      "Ġpeeping": 4906,
      "ĠTOOK": 4907,
      "Ġreality": 4908,
      "Ġupsetting": 4909,
      "ĠSOMETHING": 4910,
      "Ġmuscular": 4911,
      "Ġquicker": 4912,
      "Ġquarrel": 4913,
      "Ġstupidest": 4914,
      "Ġspreading": 4915,
      "Ġpositively": 4916,
      "Ġpointed": 4917,
      "Ġpossible": 4918,
      "Ġfolding": 4919,
      "Ġencourage": 4920,
      "Ġencouraged": 4921,
      "Ġsettling": 4922,
      "Ġcrossly": 4923,
      "Ġappearing": 4924,
      "Ġappearance": 4925,
      "Ġelbows": 4926,
      "Ġpassionate": 4927,
      "Ġletters": 4928,
      "Ġbeauti": 4929,
      "Ġcompany": 4930,
      "Ġcomplete": 4931,
      "Ġtelescopes": 4932,
      "Ġclearer": 4933,
      "Ġclearly": 4934,
      "Ġhoarsely": 4935,
      "Ġimmediate": 4936,
      "Ġbanks": 4937,
      "Ġstraightened": 4938,
      "Ġstraightening": 4939,
      "BOOK": 4940,
      "Mystery": 4941,
      "Stand": 4942,
      "Stupid": 4943,
      "Stuff": 4944,
      "Such": 4945,
      "Twenty": 4946,
      "William": 4947,
      "board": 4948,
      "explan": 4949,
      "extra": 4950,
      "iplication": 4951,
      "moral": 4952,
      "tispiece": 4953,
      "umstance": 4954,
      "ĠXI": 4955,
      "ĠXII": 4956,
      "ĠOUT": 4957,
      "ĠOURS": 4958,
      "ĠOUTSIDE": 4959,
      "Ġtumbled": 4960,
      "Ġskimming": 4961,
      "Ġskurried": 4962,
      "Ġskirt": 4963,
      "Ġsixpence": 4964,
      "Ġbleeds": 4965,
      "Ġcharges": 4966,
      "Ġchains": 4967,
      "Ġcharacter": 4968,
      "Ġcries": 4969,
      "Ġcustard": 4970,
      "Ġmischief": 4971,
      "Ġdrowned": 4972,
      "Ġdinn": 4973,
      "Ġdrive": 4974,
      "Ġdriest": 4975,
      "Ġdripping": 4976,
      "Ġfighting": 4977,
      "Ġforepaws": 4978,
      "Ġfairy": 4979,
      "Ġfairly": 4980,
      "Ġgiven": 4981,
      "Ġintroduced": 4982,
      "Ġpinch": 4983,
      "Ġpunished": 4984,
      "Ġpunching": 4985,
      "Ġpromise": 4986,
      "Ġpromised": 4987,
      "Ġpromising": 4988,
      "anything": 4989,
      "Ġhumble": 4990,
      "Ġuneasy": 4991,
      "Ġridge": 4992,
      "Ġridges": 4993,
      "Ġridiculous": 4994,
      "Ġretire": 4995,
      "Ġrelieved": 4996,
      "Ġrecogn": 4997,
      "ĠHERE": 4998,
      "Ġkills": 4999,
      "Ġkilling": 5000,
      "Ġmeeting": 5001,
      "Ġabsence": 5002,
      "ĠQUEE": 5003,
      "Ġsplashed": 5004,
      "ĠBEE": 5005,
      "ĠBEG": 5006,
      "Ġalarmed": 5007,
      "ĠLatin": 5008,
      "Ġcloser": 5009,
      "Ġbranch": 5010,
      "Ġswallowing": 5011,
      "Ġswallowed": 5012,
      "Ġdisappointment": 5013,
      "Ġdeclared": 5014,
      "Ġblows": 5015,
      "Ġaccount": 5016,
      "Ġaccounting": 5017,
      "Ġaccounts": 5018,
      "Ġaccidentally": 5019,
      "Ġfrontispiece": 5020,
      "Ġburnt": 5021,
      "Ġsqueaked": 5022,
      "ĠSOMEBODY": 5023,
      "ĠSOMEWHER": 5024,
      "Ġquarrelled": 5025,
      "Ġbeautify": 5026,
      "Ġrespectable": 5027,
      "Ġrespectful": 5028,
      "ADE": 5029,
      "Maybe": 5030,
      "Shy": 5031,
      "URNED": 5032,
      "crust": 5033,
      "crumbs": 5034,
      "chain": 5035,
      "chair": 5036,
      "desk": 5037,
      "desks": 5038,
      "looking": 5039,
      "ritated": 5040,
      "without": 5041,
      "Ġ124": 5042,
      "Ġ1865": 5043,
      "Ġvelv": 5044,
      "Ġvegetable": 5045,
      "Ġimagine": 5046,
      "Ġimitated": 5047,
      "Ġtouch": 5048,
      "Ġtougher": 5049,
      "Ġtreated": 5050,
      "Ġadjourn": 5051,
      "Ġadoption": 5052,
      "Ġaxis": 5053,
      "Ġaxes": 5054,
      "Ġactually": 5055,
      "Ġseaside": 5056,
      "Ġseldom": 5057,
      "Ġseriously": 5058,
      "Ġseries": 5059,
      "interesting": 5060,
      "Ġwags": 5061,
      "Ġcartwhe": 5062,
      "Ġcouple": 5063,
      "Ġcouples": 5064,
      "Ġcounting": 5065,
      "Ġcountry": 5066,
      "Ġmournful": 5067,
      "Ġmournfully": 5068,
      "Ġlazy": 5069,
      "Ġlazily": 5070,
      "engine": 5071,
      "Ġdaisy": 5072,
      "Ġdaisies": 5073,
      "Ġfifth": 5074,
      "Ġfifteen": 5075,
      "Ġfamily": 5076,
      "Ġfamiliar": 5077,
      "Ġfavoured": 5078,
      "Ġfavourite": 5079,
      "Ġfaintly": 5080,
      "Ġsands": 5081,
      "Ġinkstand": 5082,
      "Ġinquisitively": 5083,
      "Ġinquired": 5084,
      "athies": 5085,
      "Ġpatted": 5086,
      "Ġpatriotic": 5087,
      "Ġpulling": 5088,
      "Ġpulled": 5089,
      "Ġpencils": 5090,
      "Ġthunderstorm": 5091,
      "Ġelegant": 5092,
      "Ġeleventh": 5093,
      "Ġempty": 5094,
      "Ġemphasis": 5095,
      "ĠThose": 5096,
      "ĠThough": 5097,
      "Ġsoftly": 5098,
      "Ġuglify": 5099,
      "Ġuglifying": 5100,
      "Ġundoing": 5101,
      "Ġroast": 5102,
      "Ġroared": 5103,
      "Ġrustling": 5104,
      "Ġrustled": 5105,
      "Ġattempted": 5106,
      "Ġattempts": 5107,
      "Ġannoyed": 5108,
      "Ġkissed": 5109,
      "ĠDON": 5110,
      "ĠDOES": 5111,
      "ĠStretching": 5112,
      "ĠStigand": 5113,
      "ĠSuppress": 5114,
      "ĠSuddenly": 5115,
      "ĠShark": 5116,
      "ĠShakespea": 5117,
      "ĠStop": 5118,
      "ĠStole": 5119,
      "Ġshilling": 5120,
      "Ġshillings": 5121,
      "Ġmodern": 5122,
      "Ġmoderate": 5123,
      "Ġvarious": 5124,
      "Ġvariations": 5125,
      "Ġfeathers": 5126,
      "ĠĠĠĠĠĠĠĠĠĠĠĠĠĠĠĠĠĠĠĠĠĠĠĠĠĠĠĠĠĠĠĠĠĠĠĠĠĠĠĠĠĠĠĠĠĠĠĠĠĠĠĠĠĠ": 5127,
      "ĠĠĠĠĠĠĠĠĠĠĠĠĠĠĠĠĠĠĠĠĠĠĠĠĠĠĠĠĠĠĠĠĠĠĠĠĠĠĠĠĠĠĠĠĠĠĠĠĠĠĠĠĠ": 5128,
      "raction": 5129,
      "ĠLastly": 5130,
      "ĠPLENT": 5131,
      "ĠPLEASE": 5132,
      "Ġwaistcoat": 5133,
      "ĠVIII": 5134,
      "Ġtruthful": 5135,
      "Ġcomfortably": 5136,
      "Ġtricks": 5137,
      "Ġtrickling": 5138,
      "Ġpretending": 5139,
      "Ġcondemn": 5140,
      "Ġconduct": 5141,
      "Ġravens": 5142,
      "Ġfurrows": 5143,
      "Ġuncommonly": 5144,
      "Ġhatters": 5145,
      "Ġbursting": 5146,
      "Ġsqueeze": 5147,
      "Ġsqueezed": 5148,
      "Ġsignify": 5149,
      "Ġsignifies": 5150,
      "ĠHEARTS": 5151,
      "ĠHEARTHRU": 5152,
      "Ġoccasional": 5153,
      "Ġoccasionally": 5154,
      "Ġdesperate": 5155,
      "Ġdesperately": 5156,
      "Ġcomplaining": 5157,
      "Ġcomplained": 5158,
      "Ġreturning": 5159,
      "Ġreturned": 5160,
      "Ġcircle": 5161,
      "Ġcircumstance": 5162,
      "Ġmurdering": 5163,
      "Ġsaucepans": 5164,
      "Ġneighbouring": 5165,
      "Ahem": 5166,
      "Anything": 5167,
      "BEFORE": 5168,
      "Brandy": 5169,
      "Birds": 5170,
      "CIOUS": 5171,
      "Collar": 5172,
      "Curiouser": 5173,
      "Certainly": 5174,
      "Chorus": 5175,
      "Drive": 5176,
      "DATE": 5177,
      "FUL": 5178,
      "Fifteenth": 5179,
      "Fourteenth": 5180,
      "GGARD": 5181,
      "Hjckrrh": 5182,
      "Hole": 5183,
      "Herald": 5184,
      "Hadn": 5185,
      "Idiot": 5186,
      "Leave": 5187,
      "MALADE": 5188,
      "Nearly": 5189,
      "ORANGE": 5190,
      "Rule": 5191,
      "Reeling": 5192,
      "Repeat": 5193,
      "Sixteenth": 5194,
      "Swim": 5195,
      "Sentence": 5196,
      "Stolen": 5197,
      "Somebody": 5198,
      "Seals": 5199,
      "Thinking": 5200,
      "Talking": 5201,
      "THEY": 5202,
      "TCOAT": 5203,
      "Write": 5204,
      "WITH": 5205,
      "creatures": 5206,
      "eyed": 5207,
      "flamingoes": 5208,
      "frames": 5209,
      "fancy": 5210,
      "frame": 5211,
      "ggling": 5212,
      "guid": 5213,
      "icted": 5214,
      "jug": 5215,
      "knife": 5216,
      "much": 5217,
      "naturedly": 5218,
      "purpose": 5219,
      "pointing": 5220,
      "prettier": 5221,
      "ralia": 5222,
      "sugar": 5223,
      "somersault": 5224,
      "traps": 5225,
      "Ġirritated": 5226,
      "Ġignorant": 5227,
      "ĠZealand": 5228,
      "Ġzigzag": 5229,
      "Ġtittered": 5230,
      "Ġtidy": 5231,
      "Ġtinkling": 5232,
      "Ġtulip": 5233,
      "Ġtunnel": 5234,
      "Ġtureen": 5235,
      "Ġavoid": 5236,
      "Ġaudibly": 5237,
      "Ġsearch": 5238,
      "Ġseated": 5239,
      "Ġsternly": 5240,
      "Ġweren": 5241,
      "Ġwarning": 5242,
      "Ġwriggling": 5243,
      "Ġwearily": 5244,
      "Ġwrapping": 5245,
      "Ġwept": 5246,
      "Ġwelcome": 5247,
      "Ġobstacle": 5248,
      "Ġointment": 5249,
      "Ġoyster": 5250,
      "Ġbones": 5251,
      "Ġbalanced": 5252,
      "Ġballs": 5253,
      "Ġbrave": 5254,
      "Ġbreeze": 5255,
      "Ġboldly": 5256,
      "Ġbawled": 5257,
      "Ġtoffee": 5258,
      "Ġtomorrow": 5259,
      "Ġcoward": 5260,
      "Ġchatte": 5261,
      "Ġcentre": 5262,
      "Ġcherry": 5263,
      "Ġcalmly": 5264,
      "Ġcardboard": 5265,
      "Ġconger": 5266,
      "Ġcunning": 5267,
      "Ġcrazy": 5268,
      "Ġcreep": 5269,
      "Ġcrawled": 5270,
      "Ġceiling": 5271,
      "Ġmallets": 5272,
      "Ġmagic": 5273,
      "Ġlanguid": 5274,
      "Ġlifted": 5275,
      "Ġlimbs": 5276,
      "Ġlabelled": 5277,
      "Ġlinked": 5278,
      "Ġlamps": 5279,
      "Ġlodging": 5280,
      "Ġlullaby": 5281,
      "Ġlength": 5282,
      "Ġdiligently": 5283,
      "Ġdunce": 5284,
      "Ġdraggled": 5285,
      "Ġdepends": 5286,
      "Ġdeath": 5287,
      "Ġdiamonds": 5288,
      "Ġdainties": 5289,
      "Ġfishes": 5290,
      "Ġflew": 5291,
      "Ġfoolish": 5292,
      "Ġfield": 5293,
      "Ġfailure": 5294,
      "Ġfidgeted": 5295,
      "Ġsaucer": 5296,
      "ĠAustralia": 5297,
      "ĠAmbition": 5298,
      "ĠAtheling": 5299,
      "ĠArithmetic": 5300,
      "Ġgained": 5301,
      "Ġgallons": 5302,
      "Ġgazing": 5303,
      "Ġnasty": 5304,
      "Ġshedding": 5305,
      "Ġshepherd": 5306,
      "Ġinclined": 5307,
      "Ġinsolence": 5308,
      "Ġincessantly": 5309,
      "Ġyelp": 5310,
      "Ġpiteous": 5311,
      "Ġpanted": 5312,
      "Ġpurple": 5313,
      "Ġpatience": 5314,
      "Ġprize": 5315,
      "Ġpractice": 5316,
      "Ġthirteen": 5317,
      "ĠImprove": 5318,
      "ĠINSIDE": 5319,
      "Ġonions": 5320,
      "Ġhighest": 5321,
      "Ġhippopotam": 5322,
      "Ġhundred": 5323,
      "ĠTrims": 5324,
      "ĠTillie": 5325,
      "ĠTHAN": 5326,
      "ĠTITLE": 5327,
      "ĠTRUE": 5328,
      "Ġrushed": 5329,
      "Ġrope": 5330,
      "Ġrumbling": 5331,
      "Ġrippling": 5332,
      "Ġrefused": 5333,
      "Ġrefreshments": 5334,
      "Ġresource": 5335,
      "Ġancient": 5336,
      "ĠMagpie": 5337,
      "ĠMultiplication": 5338,
      "ĠMARMALADE": 5339,
      "ĠMystery": 5340,
      "ĠMYSELF": 5341,
      "ĠHardly": 5342,
      "ĠHATED": 5343,
      "Ġfortunately": 5344,
      "ĠDistraction": 5345,
      "ĠDOTH": 5346,
      "ĠDerision": 5347,
      "Ġknuckles": 5348,
      "ĠSOUP": 5349,
      "ĠSHOES": 5350,
      "ĠSLUGGARD": 5351,
      "Ġjourney": 5352,
      "Ġjoys": 5353,
      "Ġmuddle": 5354,
      "Ġstockings": 5355,
      "Ġstupidly": 5356,
      "Ġsteady": 5357,
      "Ġstrength": 5358,
      "Ġmemorandum": 5359,
      "ĠWATCH": 5360,
      "ĠWrithing": 5361,
      "ĠWAISTCOAT": 5362,
      "Ġhistories": 5363,
      "ĠCOURT": 5364,
      "ĠCURTSEY": 5365,
      "ĠCanterbury": 5366,
      "ĠChristmas": 5367,
      "ĠClassics": 5368,
      "ĠCoils": 5369,
      "Ġcapering": 5370,
      "Ġcamomile": 5371,
      "Ġnodded": 5372,
      "Ġgraceful": 5373,
      "Ġgrazed": 5374,
      "Ġvulgar": 5375,
      "Ġvague": 5376,
      "Ġvinegar": 5377,
      "ĠKNOW": 5378,
      "Ġexamining": 5379,
      "Ġexistence": 5380,
      "ĠGrammar": 5381,
      "Ġtwelfth": 5382,
      "Ġtwentieth": 5383,
      "Ġconsented": 5384,
      "Ġconsultation": 5385,
      "Ġafford": 5386,
      "Ġaffectionately": 5387,
      "ĠBUSY": 5388,
      "ĠBOOTS": 5389,
      "ĠRETURNED": 5390,
      "ĠRIGHT": 5391,
      "ĠRABBIT": 5392,
      "Ġchuckled": 5393,
      "Ġchrysalis": 5394,
      "ĠFENDER": 5395,
      "Ġalternately": 5396,
      "ĠLaughing": 5397,
      "ĠLewis": 5398,
      "ĠLacie": 5399,
      "ĠLondon": 5400,
      "ĠLESS": 5401,
      "Ġnevertheless": 5402,
      "ĠPERSONS": 5403,
      "ĠPRECIOUS": 5404,
      "ĠPOCKET": 5405,
      "ĠPROVES": 5406,
      "Ġarranged": 5407,
      "Ġplaced": 5408,
      "Ġeyelids": 5409,
      "Ġusurpation": 5410,
      "Ġgloomily": 5411,
      "Ġcurrants": 5412,
      "Ġcurtsey": 5413,
      "Ġunwillingly": 5414,
      "Ġunlocking": 5415,
      "Ġuntwist": 5416,
      "Ġengraved": 5417,
      "Ġenergetic": 5418,
      "Ġclapping": 5419,
      "Ġflappers": 5420,
      "Ġflavour": 5421,
      "Ġfluttered": 5422,
      "ĠEVEN": 5423,
      "ĠElsie": 5424,
      "ĠEvidence": 5425,
      "Ġpuffed": 5426,
      "ĠTHROUGH": 5427,
      "Ġproposal": 5428,
      "Ġproducing": 5429,
      "Ġtrampled": 5430,
      "Ġsnappishly": 5431,
      "Ġcrocodile": 5432,
      "Ġcommotion": 5433,
      "Ġimpatient": 5434,
      "Ġimpertinent": 5435,
      "Ġacceptance": 5436,
      "Ġscrambling": 5437,
      "Ġscratching": 5438,
      "Ġrudeness": 5439,
      "Ġdisobey": 5440,
      "Ġcontradicted": 5441,
      "Ġcheeks": 5442,
      "Ġopposite": 5443,
      "ĠAntipathies": 5444,
      "Ġpronounced": 5445,
      "Ġprotection": 5446,
      "Ġaccustomed": 5447,
      "Ġeducations": 5448,
      "ĠInvolved": 5449,
      "Ġholiday": 5450,
      "beginning": 5451,
      "Ġcompletely": 5452,
      "explanations": 5453,
      "Ġrecognised": 5454,
      "ĠQUEEN": 5455,
      "ĠSOMEWHERE": 5456,
      "Ġvelvet": 5457,
      "Ġcartwheels": 5458,
      "Ġfamiliarly": 5459,
      "ĠShakespeare": 5460,
      "ĠPLENTY": 5461,
      "ĠHEARTHRUG": 5462,
      "Ġcircumstances": 5463,
      "Ġhippopotamus": 5464,
      "ĠCURTSEYING": 5465
    },
    "merges": [
      [
        "Ġ",
        "t"
      ],
      [
        "h",
        "e"
      ],
      [
        "Ġ",
        "a"
      ],
      [
        "Ġ",
        "s"
      ],
      [
        "i",
        "n"
      ],
      [
        "Ġt",
        "he"
      ],
      [
        "Ġ",
        "Ġ"
      ],
      [
        "Ġ",
        "w"
      ],
      [
        "o",
        "u"
      ],
      [
        "i",
        "t"
      ],
      [
        "Ġ",
        "o"
      ],
      [
        "n",
        "d"
      ],
      [
        "e",
        "r"
      ],
      [
        "Ġ",
        "`"
      ],
      [
        "h",
        "a"
      ],
      [
        "in",
        "g"
      ],
      [
        "r",
        "e"
      ],
      [
        "Ġ",
        "b"
      ],
      [
        "Ġ",
        "Ċ"
      ],
      [
        "Ġt",
        "o"
      ],
      [
        "e",
        "d"
      ],
      [
        "Ġ",
        "c"
      ],
      [
        "ĠĠ",
        "ĠĠ"
      ],
      [
        "Ġa",
        "nd"
      ],
      [
        "Ġ",
        "m"
      ],
      [
        "Ġ",
        "l"
      ],
      [
        "i",
        "d"
      ],
      [
        "e",
        "n"
      ],
      [
        "Ġ",
        "d"
      ],
      [
        "l",
        "l"
      ],
      [
        "Ġ",
        "f"
      ],
      [
        "c",
        "e"
      ],
      [
        "Ġ",
        "he"
      ],
      [
        "Ġs",
        "a"
      ],
      [
        "o",
        "n"
      ],
      [
        "Ġo",
        "f"
      ],
      [
        "Ġ",
        "it"
      ],
      [
        "a",
        "s"
      ],
      [
        "i",
        "s"
      ],
      [
        "o",
        "w"
      ],
      [
        "Ġ",
        "A"
      ],
      [
        "a",
        "r"
      ],
      [
        "Ġ",
        "g"
      ],
      [
        "Ġ",
        "n"
      ],
      [
        "Ġs",
        "he"
      ],
      [
        "l",
        "e"
      ],
      [
        "o",
        "r"
      ],
      [
        "Ġ",
        "in"
      ],
      [
        "i",
        "ce"
      ],
      [
        "Ġsa",
        "id"
      ],
      [
        "a",
        "t"
      ],
      [
        "Ġb",
        "e"
      ],
      [
        "Ġ",
        "y"
      ],
      [
        "ha",
        "t"
      ],
      [
        "Ġ",
        "p"
      ],
      [
        "s",
        "e"
      ],
      [
        "Ġ",
        "ha"
      ],
      [
        "Ġt",
        "h"
      ],
      [
        "Ġy",
        "ou"
      ],
      [
        "Ġ",
        "I"
      ],
      [
        ",",
        "'"
      ],
      [
        "l",
        "ice"
      ],
      [
        "ĠA",
        "lice"
      ],
      [
        "l",
        "y"
      ],
      [
        "a",
        "n"
      ],
      [
        "Ġw",
        "as"
      ],
      [
        "o",
        "t"
      ],
      [
        "Ġo",
        "n"
      ],
      [
        "e",
        "s"
      ],
      [
        "v",
        "er"
      ],
      [
        "Ġhe",
        "r"
      ],
      [
        "m",
        "e"
      ],
      [
        "Ġ",
        "h"
      ],
      [
        "l",
        "d"
      ],
      [
        "u",
        "t"
      ],
      [
        "g",
        "h"
      ],
      [
        "Ġ",
        "e"
      ],
      [
        "Ġa",
        "s"
      ],
      [
        "!",
        "'"
      ],
      [
        "s",
        "t"
      ],
      [
        "Ġ",
        "T"
      ],
      [
        "Ġt",
        "hat"
      ],
      [
        "ou",
        "t"
      ],
      [
        "-",
        "-"
      ],
      [
        "o",
        "o"
      ],
      [
        "c",
        "h"
      ],
      [
        "u",
        "r"
      ],
      [
        "Ġs",
        "o"
      ],
      [
        "Ġ",
        "u"
      ],
      [
        "en",
        "t"
      ],
      [
        "Ġ",
        "r"
      ],
      [
        "e",
        "t"
      ],
      [
        "ĠĠĠĠ",
        "ĠĠĠĠ"
      ],
      [
        "gh",
        "t"
      ],
      [
        "v",
        "e"
      ],
      [
        "'",
        "t"
      ],
      [
        "ou",
        "ld"
      ],
      [
        "Ġw",
        "it"
      ],
      [
        "Ġa",
        "t"
      ],
      [
        "t",
        "er"
      ],
      [
        "k",
        "e"
      ],
      [
        "t",
        "le"
      ],
      [
        "a",
        "d"
      ],
      [
        "Ġwit",
        "h"
      ],
      [
        "Ġ",
        "re"
      ],
      [
        "'",
        "s"
      ],
      [
        ".",
        "'"
      ],
      [
        "a",
        "y"
      ],
      [
        "Ġa",
        "n"
      ],
      [
        "Ġha",
        "d"
      ],
      [
        "i",
        "r"
      ],
      [
        "e",
        "e"
      ],
      [
        "c",
        "k"
      ],
      [
        "Ġn",
        "ot"
      ],
      [
        "Ġ",
        "M"
      ],
      [
        "Ġa",
        "ll"
      ],
      [
        "Ġ",
        "H"
      ],
      [
        "Ġw",
        "h"
      ],
      [
        "ver",
        "y"
      ],
      [
        "?",
        "'"
      ],
      [
        "Ġ",
        "k"
      ],
      [
        "he",
        "r"
      ],
      [
        "r",
        "i"
      ],
      [
        "Ġf",
        "or"
      ],
      [
        "oo",
        "k"
      ],
      [
        "l",
        "f"
      ],
      [
        "e",
        "a"
      ],
      [
        "i",
        "f"
      ],
      [
        "i",
        "m"
      ],
      [
        "a",
        "in"
      ],
      [
        "Ġd",
        "o"
      ],
      [
        "Ġ",
        "D"
      ],
      [
        "ĠT",
        "he"
      ],
      [
        "i",
        "ll"
      ],
      [
        "Ġu",
        "p"
      ],
      [
        "Ġ",
        "very"
      ],
      [
        "it",
        "tle"
      ],
      [
        "Ġk",
        "n"
      ],
      [
        "q",
        "u"
      ],
      [
        "Ġl",
        "ittle"
      ],
      [
        "ow",
        "n"
      ],
      [
        "r",
        "y"
      ],
      [
        "Ġthe",
        "y"
      ],
      [
        "Ġn",
        "e"
      ],
      [
        "Ġs",
        "u"
      ],
      [
        "se",
        "lf"
      ],
      [
        "Ġ",
        "S"
      ],
      [
        "Ġ",
        "out"
      ],
      [
        "Ġs",
        "h"
      ],
      [
        "a",
        "l"
      ],
      [
        "e",
        "ll"
      ],
      [
        "Ġl",
        "i"
      ],
      [
        "g",
        "e"
      ],
      [
        "Ġb",
        "ut"
      ],
      [
        "p",
        "p"
      ],
      [
        "Ġth",
        "is"
      ],
      [
        "r",
        "o"
      ],
      [
        "i",
        "on"
      ],
      [
        "a",
        "b"
      ],
      [
        "Ġ",
        "j"
      ],
      [
        "Ġm",
        "u"
      ],
      [
        "Ġs",
        "ee"
      ],
      [
        "Ġ",
        "is"
      ],
      [
        "ou",
        "se"
      ],
      [
        "a",
        "nd"
      ],
      [
        "Ġ",
        "qu"
      ],
      [
        "Ġs",
        "t"
      ],
      [
        "Ġm",
        "e"
      ],
      [
        "Ġl",
        "ook"
      ],
      [
        "Ġ",
        "W"
      ],
      [
        "Ġa",
        "b"
      ],
      [
        "ĠĠ",
        "Ġ"
      ],
      [
        "Ġm",
        "o"
      ],
      [
        "Ġbe",
        "g"
      ],
      [
        "Ġh",
        "is"
      ],
      [
        "Ġ",
        "C"
      ],
      [
        "it",
        "e"
      ],
      [
        "Ġd",
        "own"
      ],
      [
        "ou",
        "nd"
      ],
      [
        "e",
        "en"
      ],
      [
        "er",
        "e"
      ],
      [
        "i",
        "ght"
      ],
      [
        "Ġa",
        "g"
      ],
      [
        "ou",
        "ght"
      ],
      [
        "h",
        "ing"
      ],
      [
        "he",
        "n"
      ],
      [
        "Ġc",
        "a"
      ],
      [
        "ou",
        "r"
      ],
      [
        "Ġkn",
        "ow"
      ],
      [
        "Ġab",
        "out"
      ],
      [
        "s",
        "s"
      ],
      [
        "Ġon",
        "e"
      ],
      [
        "Ġw",
        "hat"
      ],
      [
        "Ġag",
        "ain"
      ],
      [
        "t",
        "o"
      ],
      [
        "in",
        "k"
      ],
      [
        "Ġthe",
        "m"
      ],
      [
        "ar",
        "d"
      ],
      [
        "Ġg",
        "o"
      ],
      [
        "Ġli",
        "ke"
      ],
      [
        "Ġw",
        "ere"
      ],
      [
        "Ġn",
        "o"
      ],
      [
        "Ġ",
        "Q"
      ],
      [
        "Ġw",
        "ent"
      ],
      [
        "Ġher",
        "self"
      ],
      [
        "Ġw",
        "ould"
      ],
      [
        "Ġc",
        "ould"
      ],
      [
        "o",
        "ck"
      ],
      [
        "Ġof",
        "f"
      ],
      [
        "Ġth",
        "ought"
      ],
      [
        "ĠQ",
        "u"
      ],
      [
        "Ġo",
        "r"
      ],
      [
        "Ġth",
        "ing"
      ],
      [
        "Ġso",
        "me"
      ],
      [
        "Ġt",
        "i"
      ],
      [
        "Ġg",
        "r"
      ],
      [
        "e",
        "ar"
      ],
      [
        "t",
        "ing"
      ],
      [
        "Ġ",
        "v"
      ],
      [
        "ĠQu",
        "een"
      ],
      [
        "on",
        "g"
      ],
      [
        "Ġ",
        "K"
      ],
      [
        "Ġd",
        "id"
      ],
      [
        "Ġha",
        "ve"
      ],
      [
        "Ġthe",
        "n"
      ],
      [
        "in",
        "d"
      ],
      [
        "c",
        "t"
      ],
      [
        "Ġ",
        "if"
      ],
      [
        "Ġsa",
        "y"
      ],
      [
        "at",
        "ter"
      ],
      [
        "t",
        "her"
      ],
      [
        "a",
        "ll"
      ],
      [
        "as",
        "t"
      ],
      [
        "ha",
        "n"
      ],
      [
        "or",
        "t"
      ],
      [
        "Ġin",
        "to"
      ],
      [
        "c",
        "he"
      ],
      [
        "Ġw",
        "hen"
      ],
      [
        "er",
        "s"
      ],
      [
        "Ġg",
        "et"
      ],
      [
        "o",
        "me"
      ],
      [
        "u",
        "st"
      ],
      [
        "Ġyou",
        "r"
      ],
      [
        "Ġti",
        "me"
      ],
      [
        "Ġthe",
        "re"
      ],
      [
        "Ġd",
        "on"
      ],
      [
        "Ġe",
        "x"
      ],
      [
        "Ġwh",
        "o"
      ],
      [
        "u",
        "l"
      ],
      [
        "Ġ",
        "G"
      ],
      [
        "i",
        "l"
      ],
      [
        "u",
        "n"
      ],
      [
        "re",
        "at"
      ],
      [
        "ĠK",
        "ing"
      ],
      [
        "Ġm",
        "y"
      ],
      [
        "ur",
        "tle"
      ],
      [
        "n",
        "e"
      ],
      [
        "Ġ",
        "*"
      ],
      [
        "Ġs",
        "p"
      ],
      [
        "Ġth",
        "ink"
      ],
      [
        "ou",
        "s"
      ],
      [
        "nd",
        "er"
      ],
      [
        "Ġc",
        "an"
      ],
      [
        "Ġhe",
        "ad"
      ],
      [
        "an",
        "t"
      ],
      [
        "Ġwh",
        "i"
      ],
      [
        "ri",
        "ed"
      ],
      [
        "k",
        "ing"
      ],
      [
        "l",
        "i"
      ],
      [
        "ĠĠĠĠ",
        "ĠĠ"
      ],
      [
        "ĠT",
        "urtle"
      ],
      [
        "Ġbeg",
        "an"
      ],
      [
        "'",
        "m"
      ],
      [
        "a",
        "m"
      ],
      [
        "k",
        "ed"
      ],
      [
        "p",
        "h"
      ],
      [
        "Ġ",
        "("
      ],
      [
        "Ġan",
        "y"
      ],
      [
        "'",
        "ll"
      ],
      [
        "Ġt",
        "w"
      ],
      [
        "Ġc",
        "on"
      ],
      [
        "Ġit",
        "s"
      ],
      [
        "ĠM",
        "ock"
      ],
      [
        "ĠH",
        "atter"
      ],
      [
        "ry",
        "ph"
      ],
      [
        "ĠG",
        "ryph"
      ],
      [
        "ĠGryph",
        "on"
      ],
      [
        "a",
        "ke"
      ],
      [
        "l",
        "ing"
      ],
      [
        "m",
        "b"
      ],
      [
        "Ġa",
        "f"
      ],
      [
        "Ġw",
        "or"
      ],
      [
        "Ġw",
        "ay"
      ],
      [
        "Ġb",
        "y"
      ],
      [
        "es",
        "t"
      ],
      [
        "Ġf",
        "e"
      ],
      [
        "Ġre",
        "p"
      ],
      [
        "Ġmu",
        "ch"
      ],
      [
        "Ġqu",
        "ite"
      ],
      [
        "ĠC",
        "at"
      ],
      [
        "o",
        "ice"
      ],
      [
        "t",
        "hing"
      ],
      [
        "u",
        "s"
      ],
      [
        "Ġ",
        "B"
      ],
      [
        "Ġ",
        "R"
      ],
      [
        "Ġc",
        "h"
      ],
      [
        "Y",
        "ou"
      ],
      [
        "b",
        "it"
      ],
      [
        "Ġ",
        "F"
      ],
      [
        "Ġthe",
        "ir"
      ],
      [
        "Ġo",
        "ther"
      ],
      [
        "ir",
        "st"
      ],
      [
        "ab",
        "bit"
      ],
      [
        "n",
        "ing"
      ],
      [
        "o",
        "se"
      ],
      [
        "u",
        "re"
      ],
      [
        "is",
        "h"
      ],
      [
        "ĠĠĠĠĠĠĠĠ",
        "ĠĠĠĠĠĠĠĠ"
      ],
      [
        "Ġv",
        "oice"
      ],
      [
        "d",
        "d"
      ],
      [
        "i",
        "g"
      ],
      [
        "Ġa",
        "l"
      ],
      [
        "ĠA",
        "nd"
      ],
      [
        "Ġn",
        "ow"
      ],
      [
        "o",
        "re"
      ],
      [
        "Ġto",
        "o"
      ],
      [
        "a",
        "ck"
      ],
      [
        "r",
        "a"
      ],
      [
        "Ġ",
        "\""
      ],
      [
        "Ġc",
        "our"
      ],
      [
        "Ġp",
        "o"
      ],
      [
        "es",
        "s"
      ],
      [
        "Ġh",
        "ow"
      ],
      [
        "--",
        "'"
      ],
      [
        "Ġmo",
        "re"
      ],
      [
        "ou",
        "gh"
      ],
      [
        "a",
        "re"
      ],
      [
        "i",
        "ous"
      ],
      [
        "Ġs",
        "ha"
      ],
      [
        "re",
        "e"
      ],
      [
        "Ġg",
        "ot"
      ],
      [
        "Ġh",
        "im"
      ],
      [
        "oo",
        "d"
      ],
      [
        "ĠD",
        "u"
      ],
      [
        "Ġlook",
        "ed"
      ],
      [
        "ĠR",
        "abbit"
      ],
      [
        "T",
        "he"
      ],
      [
        "w",
        "ay"
      ],
      [
        "Ġ",
        "L"
      ],
      [
        "Ġm",
        "ad"
      ],
      [
        "Ġf",
        "irst"
      ],
      [
        "Ġon",
        "ly"
      ],
      [
        "Ġj",
        "ust"
      ],
      [
        "Ġmu",
        "st"
      ],
      [
        "'",
        "ve"
      ],
      [
        "e",
        "c"
      ],
      [
        "or",
        "m"
      ],
      [
        "ĠW",
        "h"
      ],
      [
        "I",
        "t"
      ],
      [
        "l",
        "ed"
      ],
      [
        "Ġo",
        "ver"
      ],
      [
        "Ġl",
        "ar"
      ],
      [
        "Ġne",
        "ver"
      ],
      [
        "che",
        "ss"
      ],
      [
        "ĠDu",
        "chess"
      ],
      [
        "m",
        "ent"
      ],
      [
        "Ġa",
        "re"
      ],
      [
        "ar",
        "t"
      ],
      [
        "Ġr",
        "ound"
      ],
      [
        "o",
        "d"
      ],
      [
        "v",
        "en"
      ],
      [
        "Ġ",
        "P"
      ],
      [
        "Ġt",
        "ur"
      ],
      [
        "Ġa",
        "r"
      ],
      [
        "er",
        "p"
      ],
      [
        "Ġto",
        "ne"
      ],
      [
        "is",
        "t"
      ],
      [
        "ĠD",
        "orm"
      ],
      [
        "Ġsu",
        "ch"
      ],
      [
        "Ġsh",
        "ould"
      ],
      [
        "Ġsee",
        "m"
      ],
      [
        "Ġca",
        "me"
      ],
      [
        "ĠDorm",
        "ouse"
      ],
      [
        "E",
        "R"
      ],
      [
        "O",
        "U"
      ],
      [
        "m",
        "p"
      ],
      [
        "Ġb",
        "ack"
      ],
      [
        "Ġm",
        "in"
      ],
      [
        "Ġhe",
        "re"
      ],
      [
        "Ġg",
        "reat"
      ],
      [
        "Ġr",
        "at"
      ],
      [
        "Ġwhi",
        "ch"
      ],
      [
        "'",
        "re"
      ],
      [
        "W",
        "hat"
      ],
      [
        "f",
        "ore"
      ],
      [
        "Ġ",
        "="
      ],
      [
        "Ġbe",
        "en"
      ],
      [
        "Ġp",
        "l"
      ],
      [
        "ro",
        "m"
      ],
      [
        "Ġaf",
        "ter"
      ],
      [
        "a",
        "ce"
      ],
      [
        "e",
        "ver"
      ],
      [
        "i",
        "c"
      ],
      [
        "o",
        "p"
      ],
      [
        "Ġe",
        "y"
      ],
      [
        "Ġu",
        "s"
      ],
      [
        "Ġre",
        "m"
      ],
      [
        "ĠM",
        "ar"
      ],
      [
        "e",
        "p"
      ],
      [
        "Ġw",
        "ell"
      ],
      [
        "Ġl",
        "ong"
      ],
      [
        "Ġf",
        "o"
      ],
      [
        "Ġg",
        "l"
      ],
      [
        "Ġbe",
        "fore"
      ],
      [
        "Ġha",
        "nd"
      ],
      [
        "O",
        "h"
      ],
      [
        "W",
        "h"
      ],
      [
        "a",
        "g"
      ],
      [
        "Ġl",
        "ast"
      ],
      [
        "i",
        "ly"
      ],
      [
        "o",
        "m"
      ],
      [
        "Ġc",
        "ur"
      ],
      [
        "ĠĠĠĠ",
        "ĠĠĠ"
      ],
      [
        "en",
        "ce"
      ],
      [
        "Ġf",
        "rom"
      ],
      [
        "Ġp",
        "ut"
      ],
      [
        "ĠS",
        "he"
      ],
      [
        "ĠMar",
        "ch"
      ],
      [
        "H",
        "A"
      ],
      [
        "u",
        "p"
      ],
      [
        "x",
        "t"
      ],
      [
        "Ġ",
        "ke"
      ],
      [
        "Ġl",
        "e"
      ],
      [
        "le",
        "as"
      ],
      [
        "an",
        "ce"
      ],
      [
        "Ġdo",
        "or"
      ],
      [
        "ab",
        "le"
      ],
      [
        "Ġlar",
        "ge"
      ],
      [
        "a",
        "u"
      ],
      [
        "a",
        "ve"
      ],
      [
        "u",
        "ll"
      ],
      [
        "Ġm",
        "an"
      ],
      [
        "Ġu",
        "n"
      ],
      [
        "Ġr",
        "ight"
      ],
      [
        "Ġwor",
        "d"
      ],
      [
        "Ġmin",
        "ut"
      ],
      [
        "b",
        "ut"
      ],
      [
        "o",
        "nder"
      ],
      [
        "Ġc",
        "at"
      ],
      [
        "Ġd",
        "ear"
      ],
      [
        "as",
        "s"
      ],
      [
        "ĠH",
        "are"
      ],
      [
        "im",
        "p"
      ],
      [
        "Ġlook",
        "ing"
      ],
      [
        "Ġmo",
        "ment"
      ],
      [
        "Ġtw",
        "o"
      ],
      [
        "Ġ",
        "N"
      ],
      [
        "Ġt",
        "al"
      ],
      [
        "Ġt",
        "ell"
      ],
      [
        "er",
        "ed"
      ],
      [
        "ĠĠĠĠ",
        "Ġ"
      ],
      [
        "Ġd",
        "ay"
      ],
      [
        "Ġhe",
        "ard"
      ],
      [
        "on",
        "e"
      ],
      [
        "ur",
        "y"
      ],
      [
        "Ġnot",
        "hing"
      ],
      [
        "Ġthing",
        "s"
      ],
      [
        "Ġgr",
        "ow"
      ],
      [
        "Ġmad",
        "e"
      ],
      [
        "e",
        "nd"
      ],
      [
        "v",
        "es"
      ],
      [
        "Ġb",
        "ot"
      ],
      [
        "Ġc",
        "han"
      ],
      [
        "Ġf",
        "ound"
      ],
      [
        "at",
        "e"
      ],
      [
        "Ġon",
        "ce"
      ],
      [
        "ĠM",
        "ouse"
      ],
      [
        "Ġne",
        "ar"
      ],
      [
        "Ġbeg",
        "in"
      ],
      [
        "li",
        "ed"
      ],
      [
        "Ġrep",
        "lied"
      ],
      [
        "Ġey",
        "es"
      ],
      [
        "a",
        "me"
      ],
      [
        "i",
        "re"
      ],
      [
        "he",
        "d"
      ],
      [
        "Ġw",
        "onder"
      ],
      [
        "Ġm",
        "ight"
      ],
      [
        "en",
        "ed"
      ],
      [
        "at",
        "ion"
      ],
      [
        "Ġh",
        "ur"
      ],
      [
        "ill",
        "ar"
      ],
      [
        "Ġne",
        "xt"
      ],
      [
        "erp",
        "illar"
      ],
      [
        "Ġrem",
        "ar"
      ],
      [
        "'",
        "d"
      ],
      [
        "l",
        "t"
      ],
      [
        "r",
        "ow"
      ],
      [
        "t",
        "he"
      ],
      [
        "v",
        "ing"
      ],
      [
        "Ġ",
        "en"
      ],
      [
        "Ġa",
        "m"
      ],
      [
        "Ġa",
        "dd"
      ],
      [
        "Ġw",
        "a"
      ],
      [
        "id",
        "e"
      ],
      [
        "Ġth",
        "ree"
      ],
      [
        "Ġe",
        "very"
      ],
      [
        "Ġgo",
        "ing"
      ],
      [
        "ĠCat",
        "erpillar"
      ],
      [
        "Ġtur",
        "n"
      ],
      [
        "Ġseem",
        "ed"
      ],
      [
        "i",
        "ld"
      ],
      [
        "Ġt",
        "a"
      ],
      [
        "Ġt",
        "ry"
      ],
      [
        "Ġw",
        "on"
      ],
      [
        "Ġc",
        "l"
      ],
      [
        "Ġm",
        "ake"
      ],
      [
        "Ġf",
        "l"
      ],
      [
        "Ġg",
        "ood"
      ],
      [
        "Ġp",
        "leas"
      ],
      [
        "Ġso",
        "on"
      ],
      [
        "Ġu",
        "nder"
      ],
      [
        "Ġup",
        "on"
      ],
      [
        "e",
        "l"
      ],
      [
        "e",
        "ct"
      ],
      [
        "Ġ",
        "O"
      ],
      [
        "Ġt",
        "ea"
      ],
      [
        "Ġa",
        "way"
      ],
      [
        "Ġw",
        "r"
      ],
      [
        "Ġf",
        "ind"
      ],
      [
        "Ġwith",
        "out"
      ],
      [
        "Ġj",
        "ury"
      ],
      [
        "Ġcour",
        "se"
      ],
      [
        "Ġpo",
        "or"
      ],
      [
        "od",
        "y"
      ],
      [
        "Ġrat",
        "her"
      ],
      [
        "i",
        "gh"
      ],
      [
        "Ġ",
        "Y"
      ],
      [
        "Ġt",
        "re"
      ],
      [
        "Ġt",
        "han"
      ],
      [
        "Ġs",
        "m"
      ],
      [
        "it",
        "ing"
      ],
      [
        "re",
        "d"
      ],
      [
        "Ġc",
        "ome"
      ],
      [
        "Ġd",
        "re"
      ],
      [
        "on",
        "s"
      ],
      [
        "is",
        "e"
      ],
      [
        "Ġg",
        "ard"
      ],
      [
        "le",
        "s"
      ],
      [
        "ĠS",
        "o"
      ],
      [
        "Ġme",
        "an"
      ],
      [
        "all",
        "y"
      ],
      [
        "Ġgard",
        "en"
      ],
      [
        "W",
        "ell"
      ],
      [
        "i",
        "ve"
      ],
      [
        "Ġ",
        "E"
      ],
      [
        "he",
        "re"
      ],
      [
        "Ġs",
        "ort"
      ],
      [
        "Ġw",
        "ill"
      ],
      [
        "Ġsa",
        "me"
      ],
      [
        "or",
        "y"
      ],
      [
        "Ġp",
        "e"
      ],
      [
        "Ġp",
        "i"
      ],
      [
        "ot",
        "her"
      ],
      [
        "oo",
        "m"
      ],
      [
        "Ġre",
        "ad"
      ],
      [
        "Ġfe",
        "lt"
      ],
      [
        "Ġtoo",
        "k"
      ],
      [
        "Ġadd",
        "ed"
      ],
      [
        "T",
        "hat"
      ],
      [
        "a",
        "ge"
      ],
      [
        "d",
        "e"
      ],
      [
        "e",
        "at"
      ],
      [
        "g",
        "et"
      ],
      [
        "n",
        "g"
      ],
      [
        "p",
        "s"
      ],
      [
        "u",
        "mb"
      ],
      [
        "Ġm",
        "a"
      ],
      [
        "Ġp",
        "a"
      ],
      [
        "Ġp",
        "u"
      ],
      [
        "Ġha",
        "lf"
      ],
      [
        "Ġha",
        "pp"
      ],
      [
        "ĠI",
        "t"
      ],
      [
        "oo",
        "l"
      ],
      [
        "Ġan",
        "other"
      ],
      [
        "ĠH",
        "ow"
      ],
      [
        "Ġdo",
        "es"
      ],
      [
        "Ġget",
        "ting"
      ],
      [
        "Ġch",
        "ild"
      ],
      [
        "ure",
        "s"
      ],
      [
        "Ġsha",
        "ll"
      ],
      [
        "ĠWh",
        "ite"
      ],
      [
        "\"",
        "'"
      ],
      [
        "b",
        "ody"
      ],
      [
        "t",
        "ed"
      ],
      [
        "Ġs",
        "l"
      ],
      [
        "Ġw",
        "al"
      ],
      [
        "Ġw",
        "ish"
      ],
      [
        "Ġo",
        "p"
      ],
      [
        "Ġf",
        "an"
      ],
      [
        "Ġy",
        "et"
      ],
      [
        "ĠT",
        "H"
      ],
      [
        "ri",
        "ght"
      ],
      [
        "ĠThe",
        "re"
      ],
      [
        "Ġqu",
        "est"
      ],
      [
        "Ġca",
        "ll"
      ],
      [
        "Ġword",
        "s"
      ],
      [
        "Ġminut",
        "e"
      ],
      [
        "Ġquest",
        "ion"
      ],
      [
        "B",
        "ut"
      ],
      [
        "d",
        "ly"
      ],
      [
        "f",
        "f"
      ],
      [
        "h",
        "is"
      ],
      [
        "i",
        "z"
      ],
      [
        "o",
        "ke"
      ],
      [
        "t",
        "ain"
      ],
      [
        "v",
        "ed"
      ],
      [
        "Ġs",
        "et"
      ],
      [
        "in",
        "e"
      ],
      [
        "it",
        "y"
      ],
      [
        "Ġo",
        "ld"
      ],
      [
        "Ġc",
        "ried"
      ],
      [
        "Ġf",
        "ee"
      ],
      [
        "Ġf",
        "ace"
      ],
      [
        "Ġp",
        "ro"
      ],
      [
        "Ġha",
        "r"
      ],
      [
        "me",
        "mb"
      ],
      [
        "Ġh",
        "ouse"
      ],
      [
        "Ġe",
        "at"
      ],
      [
        "Ġe",
        "ver"
      ],
      [
        "Ġu",
        "se"
      ],
      [
        "ĠĠĠĠĠĠĠĠ",
        "Ġ"
      ],
      [
        "Ġre",
        "memb"
      ],
      [
        "Ġsu",
        "re"
      ],
      [
        "Ġar",
        "m"
      ],
      [
        "Wh",
        "y"
      ],
      [
        "Ġcur",
        "ious"
      ],
      [
        "HA",
        "T"
      ],
      [
        "ull",
        "y"
      ],
      [
        "ĠY",
        "OU"
      ],
      [
        "a",
        "h"
      ],
      [
        "f",
        "ul"
      ],
      [
        "o",
        "ot"
      ],
      [
        "p",
        "t"
      ],
      [
        "Ġ",
        "V"
      ],
      [
        "Ġt",
        "r"
      ],
      [
        "Ġt",
        "im"
      ],
      [
        "Ġt",
        "ill"
      ],
      [
        "Ġt",
        "ried"
      ],
      [
        "Ġs",
        "n"
      ],
      [
        "ou",
        "p"
      ],
      [
        "Ġb",
        "r"
      ],
      [
        "Ġl",
        "o"
      ],
      [
        "le",
        "ep"
      ],
      [
        "Ġin",
        "ter"
      ],
      [
        "Ġbe",
        "c"
      ],
      [
        "Ġbe",
        "t"
      ],
      [
        "Ġbe",
        "ing"
      ],
      [
        "Ġp",
        "er"
      ],
      [
        "Ġe",
        "ven"
      ],
      [
        "Ġex",
        "p"
      ],
      [
        "Ġex",
        "ec"
      ],
      [
        "Ġsp",
        "ea"
      ],
      [
        "Ġwhi",
        "le"
      ],
      [
        "Ġfe",
        "et"
      ],
      [
        "Ġrep",
        "eat"
      ],
      [
        "Ġcour",
        "t"
      ],
      [
        "ious",
        "ly"
      ],
      [
        "Ġexec",
        "ut"
      ],
      [
        "A",
        "nd"
      ],
      [
        "H",
        "ow"
      ],
      [
        "f",
        "t"
      ],
      [
        "f",
        "ully"
      ],
      [
        "k",
        "es"
      ],
      [
        "o",
        "ld"
      ],
      [
        "Ġt",
        "ake"
      ],
      [
        "Ġs",
        "il"
      ],
      [
        "Ġw",
        "e"
      ],
      [
        "Ġw",
        "at"
      ],
      [
        "Ġ`",
        "--"
      ],
      [
        "Ġc",
        "ro"
      ],
      [
        "Ġf",
        "in"
      ],
      [
        "Ġhe",
        "ar"
      ],
      [
        "Ġe",
        "nd"
      ],
      [
        "ent",
        "ly"
      ],
      [
        "ee",
        "p"
      ],
      [
        "Ġany",
        "thing"
      ],
      [
        "dd",
        "en"
      ],
      [
        "au",
        "se"
      ],
      [
        "Ġen",
        "ough"
      ],
      [
        "C",
        "ome"
      ],
      [
        "a",
        "ct"
      ],
      [
        "b",
        "le"
      ],
      [
        "d",
        "v"
      ],
      [
        "g",
        "ed"
      ],
      [
        "s",
        "h"
      ],
      [
        "t",
        "en"
      ],
      [
        "u",
        "mp"
      ],
      [
        "Ġt",
        "able"
      ],
      [
        "Ġs",
        "ide"
      ],
      [
        "er",
        "tain"
      ],
      [
        "ha",
        "ps"
      ],
      [
        "Ġb",
        "it"
      ],
      [
        "Ġc",
        "om"
      ],
      [
        "Ġl",
        "ow"
      ],
      [
        "Ġl",
        "ess"
      ],
      [
        "Ġsa",
        "t"
      ],
      [
        "is",
        "hed"
      ],
      [
        "Ġg",
        "u"
      ],
      [
        "Ġp",
        "art"
      ],
      [
        "Ġha",
        "st"
      ],
      [
        "Ġas",
        "ked"
      ],
      [
        "Ġan",
        "x"
      ],
      [
        "if",
        "f"
      ],
      [
        "if",
        "ul"
      ],
      [
        "Ġsu",
        "pp"
      ],
      [
        "Ġsu",
        "dden"
      ],
      [
        "Ġsome",
        "thing"
      ],
      [
        "Ġsp",
        "oke"
      ],
      [
        "ĠB",
        "ut"
      ],
      [
        ".",
        ")"
      ],
      [
        ":",
        "--"
      ],
      [
        "N",
        "o"
      ],
      [
        "d",
        "ge"
      ],
      [
        "e",
        "w"
      ],
      [
        "s",
        "he"
      ],
      [
        "t",
        "h"
      ],
      [
        "Ġ",
        "id"
      ],
      [
        "Ġa",
        "pp"
      ],
      [
        "Ġs",
        "it"
      ],
      [
        "Ġc",
        "ertain"
      ],
      [
        "Ġd",
        "iff"
      ],
      [
        "Ġf",
        "ar"
      ],
      [
        "Ġe",
        "l"
      ],
      [
        "Ġr",
        "an"
      ],
      [
        "Ġan",
        "g"
      ],
      [
        "if",
        "e"
      ],
      [
        "ul",
        "t"
      ],
      [
        "Ġle",
        "ft"
      ],
      [
        "Ġtal",
        "king"
      ],
      [
        "Ġturn",
        "ed"
      ],
      [
        "Ġdoes",
        "n"
      ],
      [
        "Ġhast",
        "ily"
      ],
      [
        "b",
        "st"
      ],
      [
        "c",
        "l"
      ],
      [
        "g",
        "s"
      ],
      [
        "t",
        "e"
      ],
      [
        "Ġt",
        "ri"
      ],
      [
        "Ġa",
        "ir"
      ],
      [
        "Ġs",
        "een"
      ],
      [
        "Ġw",
        "ant"
      ],
      [
        "Ġl",
        "ist"
      ],
      [
        "ll",
        "ow"
      ],
      [
        "Ġin",
        "de"
      ],
      [
        "Ġp",
        "re"
      ],
      [
        "Ġp",
        "ass"
      ],
      [
        "Ġth",
        "r"
      ],
      [
        "Ġh",
        "igh"
      ],
      [
        "Ġe",
        "ar"
      ],
      [
        "ĠT",
        "his"
      ],
      [
        "ur",
        "p"
      ],
      [
        "ĠH",
        "e"
      ],
      [
        "ea",
        "l"
      ],
      [
        "pp",
        "ed"
      ],
      [
        "ab",
        "y"
      ],
      [
        "Ġsay",
        "ing"
      ],
      [
        "Ġdon",
        "e"
      ],
      [
        "Ġpl",
        "ay"
      ],
      [
        "Ġfo",
        "ot"
      ],
      [
        "Ġremar",
        "k"
      ],
      [
        "Ġsm",
        "all"
      ],
      [
        "Ġcall",
        "ed"
      ],
      [
        "Ġrememb",
        "er"
      ],
      [
        "Ġid",
        "ea"
      ],
      [
        "Ġinde",
        "ed"
      ],
      [
        "a",
        "w"
      ],
      [
        "b",
        "b"
      ],
      [
        "h",
        "o"
      ],
      [
        "i",
        "ck"
      ],
      [
        "m",
        "an"
      ],
      [
        "n",
        "ess"
      ],
      [
        "o",
        "in"
      ],
      [
        "p",
        "er"
      ],
      [
        "s",
        "w"
      ],
      [
        "z",
        "z"
      ],
      [
        "Ġ",
        "ought"
      ],
      [
        "Ġ",
        "imp"
      ],
      [
        "Ġa",
        "c"
      ],
      [
        "Ġs",
        "c"
      ],
      [
        "Ġs",
        "w"
      ],
      [
        "Ġs",
        "ea"
      ],
      [
        "Ġs",
        "iz"
      ],
      [
        "in",
        "ah"
      ],
      [
        "ou",
        "d"
      ],
      [
        "it",
        "ed"
      ],
      [
        "re",
        "n"
      ],
      [
        "Ġm",
        "or"
      ],
      [
        "Ġm",
        "out"
      ],
      [
        "Ġm",
        "ouse"
      ],
      [
        "Ġl",
        "et"
      ],
      [
        "Ġl",
        "ea"
      ],
      [
        "Ġsa",
        "w"
      ],
      [
        "Ġit",
        "self"
      ],
      [
        "Ġan",
        "sw"
      ],
      [
        "ĠM",
        "a"
      ],
      [
        "Ġkn",
        "ew"
      ],
      [
        "Ġdid",
        "n"
      ],
      [
        "ĠB",
        "ill"
      ],
      [
        "ra",
        "w"
      ],
      [
        "ER",
        "Y"
      ],
      [
        "Ġtal",
        "k"
      ],
      [
        "Ġbot",
        "h"
      ],
      [
        "Ġtry",
        "ing"
      ],
      [
        "Ġcl",
        "ose"
      ],
      [
        "get",
        "her"
      ],
      [
        "Ġpu",
        "zz"
      ],
      [
        "Ġhapp",
        "en"
      ],
      [
        "Ġbet",
        "ter"
      ],
      [
        "Ġper",
        "haps"
      ],
      [
        "Ġspea",
        "k"
      ],
      [
        "Ġanx",
        "iously"
      ],
      [
        "Ġmout",
        "h"
      ],
      [
        "I",
        "f"
      ],
      [
        "N",
        "ot"
      ],
      [
        "a",
        "c"
      ],
      [
        "a",
        "ch"
      ],
      [
        "e",
        "er"
      ],
      [
        "f",
        "us"
      ],
      [
        "h",
        "ind"
      ],
      [
        "i",
        "le"
      ],
      [
        "l",
        "ain"
      ],
      [
        "s",
        "ation"
      ],
      [
        "Ġa",
        "dv"
      ],
      [
        "re",
        "ad"
      ],
      [
        "Ġb",
        "aby"
      ],
      [
        "Ġc",
        "ook"
      ],
      [
        "Ġc",
        "reat"
      ],
      [
        "Ġm",
        "ay"
      ],
      [
        "id",
        "ly"
      ],
      [
        "Ġd",
        "ance"
      ],
      [
        "Ġf",
        "all"
      ],
      [
        "Ġg",
        "ave"
      ],
      [
        "Ġg",
        "one"
      ],
      [
        "Ġbe",
        "a"
      ],
      [
        "Ġbe",
        "hind"
      ],
      [
        "ut",
        "iful"
      ],
      [
        "Ġr",
        "u"
      ],
      [
        "Ġr",
        "oom"
      ],
      [
        "ee",
        "z"
      ],
      [
        "Ġwh",
        "is"
      ],
      [
        "ĠD",
        "od"
      ],
      [
        "ĠS",
        "oup"
      ],
      [
        "Ġsh",
        "ri"
      ],
      [
        "Ġqu",
        "eer"
      ],
      [
        "ss",
        "ed"
      ],
      [
        "Ġwho",
        "le"
      ],
      [
        "li",
        "e"
      ],
      [
        "The",
        "re"
      ],
      [
        "way",
        "s"
      ],
      [
        "op",
        "le"
      ],
      [
        "Ġus",
        "ed"
      ],
      [
        "Ġfo",
        "llow"
      ],
      [
        "Ġhand",
        "s"
      ],
      [
        "Ġke",
        "pt"
      ],
      [
        "Ġcat",
        "s"
      ],
      [
        "Ġbegin",
        "ning"
      ],
      [
        "Ġhur",
        "ried"
      ],
      [
        "Ġpleas",
        "e"
      ],
      [
        "Ġpe",
        "ople"
      ],
      [
        "ĠHow",
        "ever"
      ],
      [
        "Ġcertain",
        "ly"
      ],
      [
        "Ġthr",
        "ough"
      ],
      [
        "Ġsiz",
        "e"
      ],
      [
        "ĠDod",
        "o"
      ],
      [
        ")",
        "="
      ],
      [
        "P",
        "T"
      ],
      [
        "T",
        "hen"
      ],
      [
        "Y",
        "es"
      ],
      [
        "i",
        "o"
      ],
      [
        "i",
        "ers"
      ],
      [
        "j",
        "est"
      ],
      [
        "r",
        "up"
      ],
      [
        "t",
        "s"
      ],
      [
        "Ġ",
        ")="
      ],
      [
        "Ġs",
        "ound"
      ],
      [
        "Ġs",
        "urp"
      ],
      [
        "Ġw",
        "here"
      ],
      [
        "it",
        "her"
      ],
      [
        "Ġb",
        "ir"
      ],
      [
        "Ġb",
        "us"
      ],
      [
        "Ġc",
        "o"
      ],
      [
        "Ġc",
        "r"
      ],
      [
        "Ġl",
        "ear"
      ],
      [
        "id",
        "d"
      ],
      [
        "Ġd",
        "ire"
      ],
      [
        "Ġd",
        "eep"
      ],
      [
        "Ġd",
        "eal"
      ],
      [
        "Ġhe",
        "dge"
      ],
      [
        "ĠA",
        "s"
      ],
      [
        "Ġg",
        "ame"
      ],
      [
        "Ġas",
        "k"
      ],
      [
        "--",
        "\""
      ],
      [
        "Ġr",
        "a"
      ],
      [
        "Ġre",
        "st"
      ],
      [
        "qu",
        "et"
      ],
      [
        "ge",
        "on"
      ],
      [
        "Ġj",
        "oin"
      ],
      [
        "Ġst",
        "ill"
      ],
      [
        "ĠC",
        "HA"
      ],
      [
        "ard",
        "s"
      ],
      [
        "Ġwould",
        "n"
      ],
      [
        "ear",
        "s"
      ],
      [
        "ort",
        "ant"
      ],
      [
        "che",
        "s"
      ],
      [
        "Ġcon",
        "fus"
      ],
      [
        "Ġaf",
        "ra"
      ],
      [
        "Ġsha",
        "r"
      ],
      [
        "Ġtur",
        "ning"
      ],
      [
        "erp",
        "ent"
      ],
      [
        "Ġ=",
        "("
      ],
      [
        "Ġgl",
        "o"
      ],
      [
        "Ġman",
        "y"
      ],
      [
        "Ġchan",
        "ge"
      ],
      [
        "Ġhur",
        "ry"
      ],
      [
        "Ġam",
        "ong"
      ],
      [
        "Ġta",
        "il"
      ],
      [
        "ĠTH",
        "E"
      ],
      [
        "ĠV",
        "ERY"
      ],
      [
        "Ġinter",
        "rup"
      ],
      [
        "Ġfin",
        "ished"
      ],
      [
        "Ġsupp",
        "ose"
      ],
      [
        "Ġsudden",
        "ly"
      ],
      [
        "Ġel",
        "se"
      ],
      [
        "ĠMa",
        "jest"
      ],
      [
        "PT",
        "ER"
      ],
      [
        "Ġsurp",
        "r"
      ],
      [
        "Ġdire",
        "ct"
      ],
      [
        "ĠCHA",
        "PTER"
      ],
      [
        "Ġafra",
        "id"
      ],
      [
        "ĠMajest",
        "y"
      ],
      [
        "I",
        "N"
      ],
      [
        "I",
        "T"
      ],
      [
        "L",
        "D"
      ],
      [
        "O",
        "f"
      ],
      [
        "V",
        "E"
      ],
      [
        "f",
        "ort"
      ],
      [
        "i",
        "ch"
      ],
      [
        "i",
        "geon"
      ],
      [
        "k",
        "en"
      ],
      [
        "l",
        "p"
      ],
      [
        "o",
        "x"
      ],
      [
        "r",
        "ink"
      ],
      [
        "t",
        "hat"
      ],
      [
        "u",
        "ed"
      ],
      [
        "y",
        "ou"
      ],
      [
        "y",
        "ing"
      ],
      [
        "Ġ",
        "ver"
      ],
      [
        "Ġt",
        "e"
      ],
      [
        "he",
        "ther"
      ],
      [
        "Ġs",
        "is"
      ],
      [
        "Ġs",
        "leep"
      ],
      [
        "Ġthe",
        "se"
      ],
      [
        "Ġw",
        "hether"
      ],
      [
        "Ġm",
        "ind"
      ],
      [
        "Ġm",
        "atter"
      ],
      [
        "Ġl",
        "ife"
      ],
      [
        "en",
        "se"
      ],
      [
        "Ġd",
        "ou"
      ],
      [
        "Ġd",
        "is"
      ],
      [
        "Ġf",
        "ell"
      ],
      [
        "Ġhe",
        "lp"
      ],
      [
        "is",
        "ed"
      ],
      [
        "Ġin",
        "st"
      ],
      [
        "at",
        "es"
      ],
      [
        "Ġwas",
        "n"
      ],
      [
        "ver",
        "sation"
      ],
      [
        "Ġe",
        "ag"
      ],
      [
        "ĠT",
        "HAT"
      ],
      [
        "ch",
        "ing"
      ],
      [
        "Ġso",
        "ld"
      ],
      [
        "Ġr",
        "un"
      ],
      [
        "Ġre",
        "as"
      ],
      [
        "ea",
        "red"
      ],
      [
        "ĠD",
        "inah"
      ],
      [
        "Ġsh",
        "out"
      ],
      [
        "Ġoff",
        "end"
      ],
      [
        "Ġgr",
        "in"
      ],
      [
        "che",
        "d"
      ],
      [
        "Ġcon",
        "t"
      ],
      [
        "Ġcon",
        "versation"
      ],
      [
        "ĠF",
        "or"
      ],
      [
        "ig",
        "n"
      ],
      [
        "Ġal",
        "ways"
      ],
      [
        "The",
        "y"
      ],
      [
        "ĠP",
        "igeon"
      ],
      [
        "Ġgl",
        "ad"
      ],
      [
        "Ġke",
        "ep"
      ],
      [
        "Ġminut",
        "es"
      ],
      [
        "Ġgrow",
        "ing"
      ],
      [
        "Ġwa",
        "ited"
      ],
      [
        "Ġpi",
        "e"
      ],
      [
        "Ġma",
        "kes"
      ],
      [
        "Ġhar",
        "dly"
      ],
      [
        "oot",
        "man"
      ],
      [
        "Ġsn",
        "eez"
      ],
      [
        "Ġbec",
        "ause"
      ],
      [
        "Ġexecut",
        "ion"
      ],
      [
        "Ġsil",
        "ence"
      ],
      [
        "Ġtri",
        "al"
      ],
      [
        "Ġlist",
        "en"
      ],
      [
        "Ġbir",
        "d"
      ],
      [
        "Ġglo",
        "ves"
      ],
      [
        "Ġsis",
        "ter"
      ],
      [
        "Ġeag",
        "er"
      ],
      [
        "D",
        "o"
      ],
      [
        "L",
        "L"
      ],
      [
        "O",
        "T"
      ],
      [
        "R",
        "E"
      ],
      [
        "a",
        "ir"
      ],
      [
        "d",
        "er"
      ],
      [
        "f",
        "or"
      ],
      [
        "i",
        "e"
      ],
      [
        "u",
        "ck"
      ],
      [
        "w",
        "n"
      ],
      [
        "Ġt",
        "ears"
      ],
      [
        "Ġs",
        "ight"
      ],
      [
        "Ġw",
        "ind"
      ],
      [
        "Ġo",
        "wn"
      ],
      [
        "Ġb",
        "ook"
      ],
      [
        "Ġb",
        "right"
      ],
      [
        "Ġc",
        "he"
      ],
      [
        "Ġm",
        "ar"
      ],
      [
        "en",
        "er"
      ],
      [
        "Ġd",
        "ec"
      ],
      [
        "Ġd",
        "ist"
      ],
      [
        "Ġf",
        "ur"
      ],
      [
        "Ġf",
        "right"
      ],
      [
        "Ġg",
        "ener"
      ],
      [
        "Ġn",
        "ame"
      ],
      [
        "Ġbe",
        "st"
      ],
      [
        "Ġbe",
        "lie"
      ],
      [
        "Ġp",
        "ool"
      ],
      [
        "Ġha",
        "ving"
      ],
      [
        "ĠĠĠĠĠĠĠĠ",
        "ĠĠĠ"
      ],
      [
        "Ġwit",
        "ness"
      ],
      [
        "Ġre",
        "ally"
      ],
      [
        "Ġwh",
        "y"
      ],
      [
        "ri",
        "ly"
      ],
      [
        "ĠThe",
        "y"
      ],
      [
        "pp",
        "er"
      ],
      [
        "Ġj",
        "ump"
      ],
      [
        "Ġmo",
        "st"
      ],
      [
        "Ġyour",
        "self"
      ],
      [
        "Ġthink",
        "ing"
      ],
      [
        "ant",
        "ly"
      ],
      [
        "Ġtw",
        "ink"
      ],
      [
        "Ġpl",
        "ace"
      ],
      [
        "Ġgl",
        "ass"
      ],
      [
        "Wh",
        "o"
      ],
      [
        "Ġbot",
        "tle"
      ],
      [
        "Ġnear",
        "ly"
      ],
      [
        "Ġremar",
        "ked"
      ],
      [
        "Ġevery",
        "thing"
      ],
      [
        "Ġdre",
        "am"
      ],
      [
        "Ġchild",
        "ren"
      ],
      [
        "Ġwal",
        "ked"
      ],
      [
        "Ġop",
        "en"
      ],
      [
        "Ġop",
        "ened"
      ],
      [
        "Ġrepeat",
        "ed"
      ],
      [
        "Ġcro",
        "quet"
      ],
      [
        "Ġless",
        "ons"
      ],
      [
        "Ġsit",
        "ting"
      ],
      [
        "Ġlear",
        "n"
      ],
      [
        "Ġhedge",
        "ho"
      ],
      [
        "Ġshar",
        "p"
      ],
      [
        "Ġdou",
        "b"
      ],
      [
        "Ġsold",
        "iers"
      ],
      [
        "Ġreas",
        "on"
      ],
      [
        "Ġoffend",
        "ed"
      ],
      [
        ",",
        ")"
      ],
      [
        "N",
        "ow"
      ],
      [
        "W",
        "e"
      ],
      [
        "a",
        "p"
      ],
      [
        "e",
        "ad"
      ],
      [
        "e",
        "ven"
      ],
      [
        "i",
        "es"
      ],
      [
        "k",
        "y"
      ],
      [
        "l",
        "an"
      ],
      [
        "n",
        "er"
      ],
      [
        "n",
        "ave"
      ],
      [
        "o",
        "y"
      ],
      [
        "r",
        "oom"
      ],
      [
        "s",
        "id"
      ],
      [
        "u",
        "e"
      ],
      [
        "Ġ",
        "Oh"
      ],
      [
        "Ġs",
        "ing"
      ],
      [
        "Ġs",
        "ever"
      ],
      [
        "Ġs",
        "imp"
      ],
      [
        "Ġs",
        "erpent"
      ],
      [
        "in",
        "ued"
      ],
      [
        "Ġw",
        "ood"
      ],
      [
        "Ġo",
        "pp"
      ],
      [
        "er",
        "ent"
      ],
      [
        "Ġb",
        "l"
      ],
      [
        "Ġto",
        "gether"
      ],
      [
        "Ġc",
        "row"
      ],
      [
        "ĠA",
        "n"
      ],
      [
        "Ġg",
        "ive"
      ],
      [
        "at",
        "i"
      ],
      [
        "Ġp",
        "ig"
      ],
      [
        "Ġha",
        "ll"
      ],
      [
        "Ġth",
        "ose"
      ],
      [
        "Ġth",
        "ough"
      ],
      [
        "Ġh",
        "op"
      ],
      [
        "Ġh",
        "old"
      ],
      [
        "oo",
        "p"
      ],
      [
        "ĠĠĠĠĠĠĠĠ",
        "ĠĠĠĠĠ"
      ],
      [
        "Ġnot",
        "ic"
      ],
      [
        "Ġk",
        "ind"
      ],
      [
        "ĠThe",
        "n"
      ],
      [
        "Ġsu",
        "b"
      ],
      [
        "Ġsh",
        "ook"
      ],
      [
        "pp",
        "y"
      ],
      [
        "ĠW",
        "ill"
      ],
      [
        "Ġca",
        "re"
      ],
      [
        "Ġagain",
        "st"
      ],
      [
        "Ġgo",
        "ld"
      ],
      [
        "Ġcould",
        "n"
      ],
      [
        "ĠK",
        "nave"
      ],
      [
        "Ġhead",
        "s"
      ],
      [
        "Ġwor",
        "k"
      ],
      [
        "Ġfe",
        "w"
      ],
      [
        "us",
        "h"
      ],
      [
        "OU",
        "LD"
      ],
      [
        "Ġrat",
        "e"
      ],
      [
        "Ġke",
        "y"
      ],
      [
        "Ġle",
        "ast"
      ],
      [
        "Ġun",
        "c"
      ],
      [
        "Ġtre",
        "mb"
      ],
      [
        "Ġfan",
        "c"
      ],
      [
        "Ġfee",
        "ling"
      ],
      [
        "Ġtim",
        "idly"
      ],
      [
        "Ġlo",
        "bst"
      ],
      [
        "Ġexp",
        "lain"
      ],
      [
        "Ġdiff",
        "erent"
      ],
      [
        "Ġang",
        "rily"
      ],
      [
        "te",
        "mp"
      ],
      [
        "Ġansw",
        "er"
      ],
      [
        "Ġpuzz",
        "led"
      ],
      [
        "Ġcreat",
        "ures"
      ],
      [
        "Ġinterrup",
        "ted"
      ],
      [
        "Ġshout",
        "ed"
      ],
      [
        "Ġcont",
        "inued"
      ],
      [
        "Ġbird",
        "s"
      ],
      [
        "Ġbelie",
        "ve"
      ],
      [
        "Ġcrow",
        "d"
      ],
      [
        ")",
        ","
      ],
      [
        "O",
        "ff"
      ],
      [
        "c",
        "ed"
      ],
      [
        "d",
        "ay"
      ],
      [
        "g",
        "ing"
      ],
      [
        "g",
        "ot"
      ],
      [
        "i",
        "et"
      ],
      [
        "l",
        "s"
      ],
      [
        "m",
        "n"
      ],
      [
        "o",
        "nd"
      ],
      [
        "o",
        "es"
      ],
      [
        "p",
        "o"
      ],
      [
        "s",
        "o"
      ],
      [
        "t",
        "ory"
      ],
      [
        "v",
        "id"
      ],
      [
        "Ġ",
        "our"
      ],
      [
        "Ġ",
        "You"
      ],
      [
        "he",
        "ad"
      ],
      [
        "Ġs",
        "ent"
      ],
      [
        "ou",
        "n"
      ],
      [
        "er",
        "y"
      ],
      [
        "re",
        "t"
      ],
      [
        "Ġb",
        "at"
      ],
      [
        "Ġb",
        "ro"
      ],
      [
        "Ġto",
        "p"
      ],
      [
        "Ġc",
        "ar"
      ],
      [
        "Ġc",
        "le"
      ],
      [
        "Ġl",
        "ying"
      ],
      [
        "Ġd",
        "ry"
      ],
      [
        "Ġd",
        "el"
      ],
      [
        "Ġd",
        "raw"
      ],
      [
        "Ġf",
        "act"
      ],
      [
        "is",
        "s"
      ],
      [
        "ow",
        "ly"
      ],
      [
        "ĠA",
        "t"
      ],
      [
        "Ġn",
        "ice"
      ],
      [
        "Ġp",
        "r"
      ],
      [
        "Ġp",
        "ers"
      ],
      [
        "Ġha",
        "s"
      ],
      [
        "Ġha",
        "ven"
      ],
      [
        "ĠI",
        "S"
      ],
      [
        "Ġe",
        "ither"
      ],
      [
        "Ġas",
        "leep"
      ],
      [
        "Ġr",
        "ose"
      ],
      [
        "Ġwh",
        "ite"
      ],
      [
        "Ġwh",
        "iting"
      ],
      [
        "Ġfor",
        "got"
      ],
      [
        "im",
        "m"
      ],
      [
        "Ġli",
        "ve"
      ],
      [
        "Ġmu",
        "sh"
      ],
      [
        "Ġst",
        "r"
      ],
      [
        "Ġca",
        "u"
      ],
      [
        "Ġno",
        "se"
      ],
      [
        "ort",
        "h"
      ],
      [
        "ort",
        "un"
      ],
      [
        "ne",
        "y"
      ],
      [
        "am",
        "ing"
      ],
      [
        "ĠF",
        "ootman"
      ],
      [
        "Ġlar",
        "g"
      ],
      [
        "art",
        "s"
      ],
      [
        "imp",
        "ortant"
      ],
      [
        "Ġchan",
        "ged"
      ],
      [
        "ate",
        "ly"
      ],
      [
        "Ġwa",
        "iting"
      ],
      [
        "Ġdre",
        "ad"
      ],
      [
        "Ġmean",
        "ing"
      ],
      [
        "Ġgarden",
        "ers"
      ],
      [
        "Ġread",
        "y"
      ],
      [
        "Ġma",
        "king"
      ],
      [
        "Ġsl",
        "ates"
      ],
      [
        "Ġsl",
        "owly"
      ],
      [
        "Ġfee",
        "l"
      ],
      [
        "Ġpro",
        "ce"
      ],
      [
        "Ġhar",
        "d"
      ],
      [
        "ĠYOU",
        "R"
      ],
      [
        "act",
        "ly"
      ],
      [
        "Ġcom",
        "ing"
      ],
      [
        "Ġpart",
        "y"
      ],
      [
        "Ġapp",
        "eared"
      ],
      [
        "Ġac",
        "c"
      ],
      [
        "Ġmor",
        "al"
      ],
      [
        "ac",
        "le"
      ],
      [
        "Ġbea",
        "utiful"
      ],
      [
        "Ġfollow",
        "ed"
      ],
      [
        "idd",
        "le"
      ],
      [
        "Ġdirect",
        "ion"
      ],
      [
        "Ġver",
        "se"
      ],
      [
        "Ġrun",
        "ning"
      ],
      [
        "Ġpie",
        "ce"
      ],
      [
        "Ġeager",
        "ly"
      ],
      [
        "Ġwind",
        "ow"
      ],
      [
        "Ġdist",
        "ance"
      ],
      [
        "Ġdoub",
        "t"
      ],
      [
        "Ġopp",
        "ortun"
      ],
      [
        "Ġnotic",
        "ed"
      ],
      [
        "Ġmush",
        "room"
      ],
      [
        "Ġopportun",
        "ity"
      ],
      [
        "!",
        "\""
      ],
      [
        ".",
        "\"'"
      ],
      [
        "A",
        "T"
      ],
      [
        "A",
        "VE"
      ],
      [
        "H",
        "E"
      ],
      [
        "I",
        "S"
      ],
      [
        "J",
        "ust"
      ],
      [
        "a",
        "id"
      ],
      [
        "a",
        "pp"
      ],
      [
        "e",
        "k"
      ],
      [
        "f",
        "ter"
      ],
      [
        "i",
        "x"
      ],
      [
        "i",
        "am"
      ],
      [
        "j",
        "ect"
      ],
      [
        "n",
        "ed"
      ],
      [
        "o",
        "f"
      ],
      [
        "s",
        "ent"
      ],
      [
        "t",
        "end"
      ],
      [
        "w",
        "h"
      ],
      [
        "w",
        "o"
      ],
      [
        "he",
        "sh"
      ],
      [
        "Ġs",
        "ong"
      ],
      [
        "Ġs",
        "ec"
      ],
      [
        "Ġs",
        "igh"
      ],
      [
        "in",
        "ess"
      ],
      [
        "it",
        "h"
      ],
      [
        "Ġb",
        "reat"
      ],
      [
        "Ġb",
        "read"
      ],
      [
        "Ġm",
        "iddle"
      ],
      [
        "Ġl",
        "oud"
      ],
      [
        "id",
        "ed"
      ],
      [
        "Ġd",
        "en"
      ],
      [
        "Ġd",
        "ro"
      ],
      [
        "Ġf",
        "r"
      ],
      [
        "Ġf",
        "our"
      ],
      [
        "as",
        "ter"
      ],
      [
        "ar",
        "k"
      ],
      [
        "Ġg",
        "ir"
      ],
      [
        "le",
        "mn"
      ],
      [
        "at",
        "her"
      ],
      [
        "Ġbe",
        "l"
      ],
      [
        "Ġp",
        "ard"
      ],
      [
        "Ġha",
        "ir"
      ],
      [
        "es",
        "ting"
      ],
      [
        "Ġh",
        "un"
      ],
      [
        "Ġe",
        "ach"
      ],
      [
        "Ġe",
        "vid"
      ],
      [
        "st",
        "and"
      ],
      [
        "ch",
        "ool"
      ],
      [
        "Ġso",
        "lemn"
      ],
      [
        "ent",
        "ure"
      ],
      [
        "ent",
        "ures"
      ],
      [
        "et",
        "ch"
      ],
      [
        "Ġhad",
        "n"
      ],
      [
        "ĠM",
        "E"
      ],
      [
        "im",
        "ney"
      ],
      [
        "Ġne",
        "ck"
      ],
      [
        "Ġsh",
        "ow"
      ],
      [
        "Ġsh",
        "ut"
      ],
      [
        "Ġis",
        "n"
      ],
      [
        "Ġqu",
        "iet"
      ],
      [
        "Ġst",
        "ood"
      ],
      [
        "Ġst",
        "ory"
      ],
      [
        "ĠW",
        "hen"
      ],
      [
        "ĠW",
        "HAT"
      ],
      [
        "Ġbeg",
        "un"
      ],
      [
        "Ġhis",
        "tory"
      ],
      [
        "ss",
        "i"
      ],
      [
        "ss",
        "ion"
      ],
      [
        "Ġgo",
        "es"
      ],
      [
        "Ġti",
        "red"
      ],
      [
        "Ġgr",
        "own"
      ],
      [
        "Ġv",
        "io"
      ],
      [
        "Ġv",
        "enture"
      ],
      [
        "Ġex",
        "cl"
      ],
      [
        "ul",
        "ar"
      ],
      [
        "Ġcon",
        "sid"
      ],
      [
        "Ġwor",
        "ld"
      ],
      [
        "ĠB",
        "ea"
      ],
      [
        "Ġch",
        "in"
      ],
      [
        "Ġch",
        "imney"
      ],
      [
        "ĠF",
        "ive"
      ],
      [
        "Ġother",
        "s"
      ],
      [
        "ĠĠĠĠĠĠĠĠĠĠĠĠĠĠĠĠ",
        "ĠĠĠ"
      ],
      [
        "ĠL",
        "ory"
      ],
      [
        "ĠWh",
        "y"
      ],
      [
        "Ġar",
        "g"
      ],
      [
        "ic",
        "ult"
      ],
      [
        "Ġey",
        "e"
      ],
      [
        "Ġus",
        "u"
      ],
      [
        "up",
        "id"
      ],
      [
        "Ġman",
        "age"
      ],
      [
        "ĠN",
        "o"
      ],
      [
        "ĠN",
        "OT"
      ],
      [
        "Ġwonder",
        "ing"
      ],
      [
        "Ġpleas",
        "ed"
      ],
      [
        "Ġtre",
        "es"
      ],
      [
        "ons",
        "ense"
      ],
      [
        "ĠE",
        "ng"
      ],
      [
        "umb",
        "er"
      ],
      [
        "Ġpa",
        "w"
      ],
      [
        "Ġpu",
        "ppy"
      ],
      [
        "Ġhapp",
        "ened"
      ],
      [
        "Ġsil",
        "ent"
      ],
      [
        "Ġwat",
        "ch"
      ],
      [
        "Ġdiff",
        "icult"
      ],
      [
        "Ġsc",
        "re"
      ],
      [
        "Ġbus",
        "iness"
      ],
      [
        "Ġsurpr",
        "ised"
      ],
      [
        "Ġdec",
        "ided"
      ],
      [
        "Ġfright",
        "ened"
      ],
      [
        "Ġgener",
        "ally"
      ],
      [
        "Ġhedgeho",
        "g"
      ],
      [
        "ati",
        "ently"
      ],
      [
        "Ġsub",
        "ject"
      ],
      [
        "Ġgold",
        "en"
      ],
      [
        "Ġunc",
        "om"
      ],
      [
        "Ġlobst",
        "ers"
      ],
      [
        "Ġdel",
        "ight"
      ],
      [
        "Ġlarg",
        "er"
      ],
      [
        "hesh",
        "ire"
      ],
      [
        "Ġpard",
        "on"
      ],
      [
        "Ġvio",
        "l"
      ],
      [
        "ĠEng",
        "l"
      ],
      [
        ".",
        "\""
      ],
      [
        "A",
        "S"
      ],
      [
        "H",
        "e"
      ],
      [
        "I",
        "n"
      ],
      [
        "L",
        "E"
      ],
      [
        "U",
        "S"
      ],
      [
        "W",
        "ould"
      ],
      [
        "a",
        "v"
      ],
      [
        "a",
        "im"
      ],
      [
        "b",
        "s"
      ],
      [
        "b",
        "ly"
      ],
      [
        "b",
        "ox"
      ],
      [
        "c",
        "up"
      ],
      [
        "d",
        "i"
      ],
      [
        "d",
        "u"
      ],
      [
        "i",
        "ed"
      ],
      [
        "i",
        "me"
      ],
      [
        "l",
        "ite"
      ],
      [
        "l",
        "ves"
      ],
      [
        "m",
        "o"
      ],
      [
        "m",
        "en"
      ],
      [
        "n",
        "y"
      ],
      [
        "o",
        "ly"
      ],
      [
        "p",
        "ig"
      ],
      [
        "w",
        "een"
      ],
      [
        "w",
        "ards"
      ],
      [
        "Ġ",
        "ed"
      ],
      [
        "Ġ",
        "hat"
      ],
      [
        "Ġt",
        "ast"
      ],
      [
        "Ġt",
        "arts"
      ],
      [
        "Ġs",
        "or"
      ],
      [
        "Ġs",
        "ir"
      ],
      [
        "Ġs",
        "chool"
      ],
      [
        "in",
        "ea"
      ],
      [
        "ou",
        "ble"
      ],
      [
        "it",
        "ion"
      ],
      [
        "it",
        "ten"
      ],
      [
        "Ġo",
        "h"
      ],
      [
        "er",
        "ing"
      ],
      [
        "re",
        "ssed"
      ],
      [
        "Ġb",
        "ur"
      ],
      [
        "Ġto",
        "ld"
      ],
      [
        "Ġc",
        "ut"
      ],
      [
        "Ġl",
        "ate"
      ],
      [
        "id",
        "es"
      ],
      [
        "Ġd",
        "are"
      ],
      [
        "Ġf",
        "un"
      ],
      [
        "Ġf",
        "ull"
      ],
      [
        "as",
        "h"
      ],
      [
        "is",
        "on"
      ],
      [
        "Ġg",
        "re"
      ],
      [
        "Ġn",
        "ur"
      ],
      [
        "Ġn",
        "onsense"
      ],
      [
        "Ġin",
        "v"
      ],
      [
        "Ġin",
        "ches"
      ],
      [
        "Ġbe",
        "at"
      ],
      [
        "Ġyou",
        "th"
      ],
      [
        "ĠI",
        "n"
      ],
      [
        "Ġh",
        "o"
      ],
      [
        "Ġh",
        "ot"
      ],
      [
        "Ġh",
        "our"
      ],
      [
        "ut",
        "ter"
      ],
      [
        "Ġe",
        "g"
      ],
      [
        "--",
        "`"
      ],
      [
        "oo",
        "f"
      ],
      [
        "ch",
        "oly"
      ],
      [
        "Ġr",
        "abbit"
      ],
      [
        "Ġr",
        "oof"
      ],
      [
        "Ġan",
        "im"
      ],
      [
        "ee",
        "k"
      ],
      [
        "ck",
        "ed"
      ],
      [
        "ĠH",
        "ere"
      ],
      [
        "ĠH",
        "ear"
      ],
      [
        "ri",
        "z"
      ],
      [
        "Ġkn",
        "ee"
      ],
      [
        "ĠS",
        "oo"
      ],
      [
        "Ġsh",
        "oes"
      ],
      [
        "Ġli",
        "ked"
      ],
      [
        "Ġbut",
        "ter"
      ],
      [
        "ab",
        "el"
      ],
      [
        "Ġst",
        "ay"
      ],
      [
        "Ġst",
        "and"
      ],
      [
        "Ġme",
        "lan"
      ],
      [
        "ĠC",
        "heshire"
      ],
      [
        "ss",
        "ing"
      ],
      [
        "ock",
        "et"
      ],
      [
        "Ġgr",
        "ave"
      ],
      [
        "Ġex",
        "ce"
      ],
      [
        "Ġmy",
        "self"
      ],
      [
        "ĠF",
        "irst"
      ],
      [
        "Ġal",
        "ong"
      ],
      [
        "Ġal",
        "mo"
      ],
      [
        "Ġpo",
        "lite"
      ],
      [
        "Ġhow",
        "ever"
      ],
      [
        "Ġhim",
        "self"
      ],
      [
        "ĠL",
        "et"
      ],
      [
        "ĠL",
        "iz"
      ],
      [
        "ĠWh",
        "o"
      ],
      [
        "Ġmin",
        "e"
      ],
      [
        "ag",
        "ed"
      ],
      [
        "au",
        "ght"
      ],
      [
        "but",
        "ter"
      ],
      [
        "Ġfl",
        "aming"
      ],
      [
        "Ġunder",
        "stand"
      ],
      [
        "ĠO",
        "n"
      ],
      [
        "Ġwr",
        "iting"
      ],
      [
        "Ġwr",
        "itten"
      ],
      [
        "Ġpe",
        "pper"
      ],
      [
        "Ġpi",
        "ct"
      ],
      [
        "Ġpa",
        "ir"
      ],
      [
        "Ġarm",
        "s"
      ],
      [
        "Ġtr",
        "ouble"
      ],
      [
        "Ġtim",
        "es"
      ],
      [
        "Ġinter",
        "esting"
      ],
      [
        "Ġexecut",
        "ed"
      ],
      [
        "Ġgu",
        "ess"
      ],
      [
        "Ġgu",
        "inea"
      ],
      [
        "Ġpre",
        "sent"
      ],
      [
        "Ġlea",
        "ve"
      ],
      [
        "Ġlea",
        "ves"
      ],
      [
        "Ġwhis",
        "p"
      ],
      [
        "Ġshri",
        "ek"
      ],
      [
        "Ġsneez",
        "ing"
      ],
      [
        "Ġexecution",
        "er"
      ],
      [
        "Ġmar",
        "ked"
      ],
      [
        "Ġjump",
        "ed"
      ],
      [
        "Ġsimp",
        "le"
      ],
      [
        "Ġtremb",
        "ling"
      ],
      [
        "Ġfanc",
        "y"
      ],
      [
        "Ġbro",
        "ken"
      ],
      [
        "Ġpers",
        "on"
      ],
      [
        "Ġforgot",
        "ten"
      ],
      [
        "Ġdread",
        "fully"
      ],
      [
        "Ġproce",
        "ssion"
      ],
      [
        "Ġsec",
        "ond"
      ],
      [
        "Ġevid",
        "ence"
      ],
      [
        "Ġexcl",
        "aim"
      ],
      [
        "Ġscre",
        "am"
      ],
      [
        "ĠEngl",
        "ish"
      ],
      [
        "Ġanim",
        "al"
      ],
      [
        "ĠHear",
        "ts"
      ],
      [
        "Ġmelan",
        "choly"
      ],
      [
        "Ġalmo",
        "st"
      ],
      [
        "Ġpolite",
        "ly"
      ],
      [
        "ĠLiz",
        "ard"
      ],
      [
        "Ġexclaim",
        "ed"
      ],
      [
        "'",
        ";"
      ],
      [
        "A",
        "N"
      ],
      [
        "A",
        "R"
      ],
      [
        "A",
        "s"
      ],
      [
        "A",
        "lice"
      ],
      [
        "D",
        "on"
      ],
      [
        "E",
        "S"
      ],
      [
        "H",
        "O"
      ],
      [
        "H",
        "ere"
      ],
      [
        "I",
        "I"
      ],
      [
        "I",
        "LL"
      ],
      [
        "L",
        "et"
      ],
      [
        "N",
        "D"
      ],
      [
        "N",
        "E"
      ],
      [
        "O",
        "M"
      ],
      [
        "S",
        "o"
      ],
      [
        "S",
        "he"
      ],
      [
        "V",
        "ery"
      ],
      [
        "a",
        "ult"
      ],
      [
        "b",
        "e"
      ],
      [
        "c",
        "our"
      ],
      [
        "d",
        "ered"
      ],
      [
        "d",
        "ign"
      ],
      [
        "f",
        "ect"
      ],
      [
        "g",
        "ar"
      ],
      [
        "g",
        "es"
      ],
      [
        "h",
        "ow"
      ],
      [
        "i",
        "bb"
      ],
      [
        "n",
        "ot"
      ],
      [
        "o",
        "or"
      ],
      [
        "o",
        "bst"
      ],
      [
        "r",
        "ing"
      ],
      [
        "s",
        "p"
      ],
      [
        "s",
        "ing"
      ],
      [
        "s",
        "ity"
      ],
      [
        "t",
        "im"
      ],
      [
        "t",
        "il"
      ],
      [
        "u",
        "ment"
      ],
      [
        "v",
        "ous"
      ],
      [
        "w",
        "e"
      ],
      [
        "Ġ",
        "'"
      ],
      [
        "Ġ",
        "ent"
      ],
      [
        "Ġ",
        "imm"
      ],
      [
        "Ġ",
        "Just"
      ],
      [
        "Ġt",
        "en"
      ],
      [
        "Ġt",
        "ree"
      ],
      [
        "Ġs",
        "qu"
      ],
      [
        "Ġs",
        "han"
      ],
      [
        "Ġs",
        "ig"
      ],
      [
        "Ġs",
        "ign"
      ],
      [
        "Ġs",
        "ky"
      ],
      [
        "in",
        "y"
      ],
      [
        "Ġw",
        "and"
      ],
      [
        "er",
        "vous"
      ],
      [
        "Ġ`",
        "\""
      ],
      [
        "ing",
        "er"
      ],
      [
        "Ġb",
        "ow"
      ],
      [
        "Ġb",
        "an"
      ],
      [
        "Ġb",
        "ox"
      ],
      [
        "ed",
        "s"
      ],
      [
        "Ġc",
        "as"
      ],
      [
        "Ġc",
        "or"
      ],
      [
        "Ġc",
        "ry"
      ],
      [
        "Ġm",
        "utter"
      ],
      [
        "Ġl",
        "ed"
      ],
      [
        "Ġl",
        "ad"
      ],
      [
        "Ġd",
        "rink"
      ],
      [
        "Ġf",
        "ri"
      ],
      [
        "Ġf",
        "ig"
      ],
      [
        "Ġf",
        "ire"
      ],
      [
        "Ġf",
        "etch"
      ],
      [
        "Ġf",
        "inger"
      ],
      [
        "Ġhe",
        "ight"
      ],
      [
        "Ġsa",
        "dly"
      ],
      [
        "Ġof",
        "ten"
      ],
      [
        "as",
        "ily"
      ],
      [
        "ĠA",
        "RE"
      ],
      [
        "ĠA",
        "fter"
      ],
      [
        "ar",
        "ing"
      ],
      [
        "Ġn",
        "at"
      ],
      [
        "Ġn",
        "ibb"
      ],
      [
        "Ġn",
        "ervous"
      ],
      [
        "le",
        "ss"
      ],
      [
        "Ġin",
        "dign"
      ],
      [
        "Ġp",
        "ack"
      ],
      [
        "Ġp",
        "ocket"
      ],
      [
        "Ġth",
        "row"
      ],
      [
        "Ġyou",
        "ng"
      ],
      [
        "an",
        "ge"
      ],
      [
        "Ġh",
        "on"
      ],
      [
        "Ġh",
        "ook"
      ],
      [
        "Ġh",
        "ome"
      ],
      [
        "Ġas",
        "king"
      ],
      [
        "ĠT",
        "hat"
      ],
      [
        "ur",
        "or"
      ],
      [
        "ĠĠĠĠĠĠĠĠ",
        "ĠĠĠĠĠĠĠ"
      ],
      [
        "Ġat",
        "tend"
      ],
      [
        "Ġre",
        "ach"
      ],
      [
        "Ġnot",
        "ice"
      ],
      [
        "ĠH",
        "E"
      ],
      [
        "Ġk",
        "id"
      ],
      [
        "Ġfor",
        "get"
      ],
      [
        "Ġdo",
        "ing"
      ],
      [
        "ĠD",
        "o"
      ],
      [
        "Ġkn",
        "ock"
      ],
      [
        "Ġne",
        "w"
      ],
      [
        "Ġsu",
        "l"
      ],
      [
        "Ġsh",
        "rink"
      ],
      [
        "ro",
        "ll"
      ],
      [
        "ro",
        "ss"
      ],
      [
        "Ġj",
        "u"
      ],
      [
        "Ġj",
        "uror"
      ],
      [
        "Ġst",
        "o"
      ],
      [
        "Ġst",
        "op"
      ],
      [
        "Ġst",
        "ick"
      ],
      [
        "Ġme",
        "ant"
      ],
      [
        "ĠW",
        "OULD"
      ],
      [
        "ĠW",
        "AS"
      ],
      [
        "ĠW",
        "ILL"
      ],
      [
        "Ġmo",
        "ved"
      ],
      [
        "to",
        "gether"
      ],
      [
        "Ġno",
        "body"
      ],
      [
        "Ġoff",
        "ic"
      ],
      [
        "Ġor",
        "der"
      ],
      [
        "Ġsome",
        "body"
      ],
      [
        "Ġsome",
        "tim"
      ],
      [
        "Ġgr",
        "ound"
      ],
      [
        "Ġgr",
        "un"
      ],
      [
        "Ġv",
        "an"
      ],
      [
        "Ġex",
        "t"
      ],
      [
        "Ġex",
        "actly"
      ],
      [
        "Ġ(",
        "`"
      ],
      [
        "Ġtw",
        "ice"
      ],
      [
        "Ġrep",
        "ly"
      ],
      [
        "ĠĠĠĠĠĠĠĠĠĠĠĠĠĠĠĠ",
        "ĠĠĠĠĠĠĠĠ"
      ],
      [
        "Ġal",
        "oud"
      ],
      [
        "Ġal",
        "together"
      ],
      [
        "ĠL",
        "obst"
      ],
      [
        "ĠWh",
        "ile"
      ],
      [
        "art",
        "h"
      ],
      [
        "Ġshould",
        "n"
      ],
      [
        "Ġseem",
        "s"
      ],
      [
        "mp",
        "er"
      ],
      [
        "Ġpl",
        "an"
      ],
      [
        "Ġrem",
        "ain"
      ],
      [
        "Wh",
        "ich"
      ],
      [
        "Ġcur",
        "io"
      ],
      [
        "leas",
        "e"
      ],
      [
        "Ġnear",
        "er"
      ],
      [
        "the",
        "y"
      ],
      [
        "Ġwa",
        "ving"
      ],
      [
        "Ġevery",
        "body"
      ],
      [
        "Ġta",
        "king"
      ],
      [
        "Ġtea",
        "cup"
      ],
      [
        "Ġwr",
        "ite"
      ],
      [
        "Ġwr",
        "ong"
      ],
      [
        "Ġtre",
        "acle"
      ],
      [
        "Ġdre",
        "w"
      ],
      [
        "Ġmean",
        "s"
      ],
      [
        "Ġwal",
        "k"
      ],
      [
        "Ġwal",
        "king"
      ],
      [
        "Ġface",
        "s"
      ],
      [
        "Ġrememb",
        "ered"
      ],
      [
        "Ġbr",
        "ing"
      ],
      [
        "Ġlo",
        "ve"
      ],
      [
        "Ġbec",
        "ome"
      ],
      [
        "Ġbet",
        "ween"
      ],
      [
        "Ġspea",
        "king"
      ],
      [
        "Ġwat",
        "er"
      ],
      [
        "Ġfin",
        "ish"
      ],
      [
        "Ġang",
        "ry"
      ],
      [
        "Ġpass",
        "ed"
      ],
      [
        "Ġear",
        "s"
      ],
      [
        "aw",
        "s"
      ],
      [
        "bb",
        "ing"
      ],
      [
        "Ġimp",
        "atiently"
      ],
      [
        "Ġac",
        "ross"
      ],
      [
        "Ġsw",
        "am"
      ],
      [
        "Ġmor",
        "ning"
      ],
      [
        "raw",
        "ling"
      ],
      [
        "Ġhappen",
        "s"
      ],
      [
        "Ġshri",
        "ll"
      ],
      [
        "Ġsound",
        "ed"
      ],
      [
        "Ġconfus",
        "ion"
      ],
      [
        "Ġsurpr",
        "ise"
      ],
      [
        "IN",
        "K"
      ],
      [
        "fort",
        "able"
      ],
      [
        "Ġte",
        "mper"
      ],
      [
        "Ġsleep",
        "y"
      ],
      [
        "Ġfell",
        "ow"
      ],
      [
        "Ġinst",
        "antly"
      ],
      [
        "Ġtwink",
        "le"
      ],
      [
        "Ġhop",
        "e"
      ],
      [
        "ĠWill",
        "iam"
      ],
      [
        "temp",
        "t"
      ],
      [
        "Ġcrowd",
        "ed"
      ],
      [
        "Ġsent",
        "ence"
      ],
      [
        "Ġstr",
        "ange"
      ],
      [
        "Ġdro",
        "pped"
      ],
      [
        "Ġquiet",
        "ly"
      ],
      [
        "Ġarg",
        "ument"
      ],
      [
        "Ġusu",
        "al"
      ],
      [
        "Ġsor",
        "row"
      ],
      [
        "Ġeg",
        "gs"
      ],
      [
        "riz",
        "es"
      ],
      [
        "Ġflaming",
        "o"
      ],
      [
        "Ġwhisp",
        "ered"
      ],
      [
        "Ġsig",
        "hed"
      ],
      [
        "Ġcas",
        "e"
      ],
      [
        "Ġfri",
        "end"
      ],
      [
        "Ġhook",
        "ah"
      ],
      [
        "Ġsometim",
        "es"
      ],
      [
        "ĠLobst",
        "er"
      ],
      [
        "Ġcurio",
        "sity"
      ],
      [
        ")",
        "."
      ],
      [
        ",",
        "\""
      ],
      [
        ",",
        "\"'"
      ],
      [
        "?",
        "--"
      ],
      [
        "A",
        "h"
      ],
      [
        "A",
        "re"
      ],
      [
        "B",
        "e"
      ],
      [
        "C",
        "all"
      ],
      [
        "E",
        "T"
      ],
      [
        "E",
        "V"
      ],
      [
        "E",
        "x"
      ],
      [
        "H",
        "old"
      ],
      [
        "I",
        "D"
      ],
      [
        "I",
        "M"
      ],
      [
        "O",
        "n"
      ],
      [
        "O",
        "ne"
      ],
      [
        "P",
        "lease"
      ],
      [
        "S",
        "ure"
      ],
      [
        "T",
        "S"
      ],
      [
        "a",
        "z"
      ],
      [
        "a",
        "il"
      ],
      [
        "b",
        "ow"
      ],
      [
        "b",
        "ook"
      ],
      [
        "c",
        "c"
      ],
      [
        "c",
        "o"
      ],
      [
        "c",
        "hen"
      ],
      [
        "c",
        "op"
      ],
      [
        "c",
        "ap"
      ],
      [
        "e",
        "f"
      ],
      [
        "e",
        "ly"
      ],
      [
        "f",
        "ish"
      ],
      [
        "g",
        "l"
      ],
      [
        "h",
        "or"
      ],
      [
        "i",
        "v"
      ],
      [
        "l",
        "as"
      ],
      [
        "m",
        "s"
      ],
      [
        "m",
        "on"
      ],
      [
        "o",
        "h"
      ],
      [
        "o",
        "s"
      ],
      [
        "o",
        "king"
      ],
      [
        "p",
        "it"
      ],
      [
        "p",
        "ed"
      ],
      [
        "r",
        "ay"
      ],
      [
        "s",
        "ide"
      ],
      [
        "t",
        "ree"
      ],
      [
        "u",
        "c"
      ],
      [
        "u",
        "de"
      ],
      [
        "u",
        "ff"
      ],
      [
        "v",
        "age"
      ],
      [
        "w",
        "ell"
      ],
      [
        "w",
        "hen"
      ],
      [
        "w",
        "ise"
      ],
      [
        "w",
        "here"
      ],
      [
        "Ġ",
        "es"
      ],
      [
        "Ġt",
        "er"
      ],
      [
        "Ġt",
        "aught"
      ],
      [
        "Ġt",
        "iny"
      ],
      [
        "Ġa",
        "ge"
      ],
      [
        "Ġs",
        "in"
      ],
      [
        "Ġs",
        "li"
      ],
      [
        "Ġs",
        "oup"
      ],
      [
        "Ġs",
        "ides"
      ],
      [
        "Ġw",
        "ow"
      ],
      [
        "Ġw",
        "ild"
      ],
      [
        "Ġw",
        "orth"
      ],
      [
        "Ġw",
        "eek"
      ],
      [
        "it",
        "chen"
      ],
      [
        "it",
        "ude"
      ],
      [
        "Ġo",
        "b"
      ],
      [
        "Ġo",
        "cc"
      ],
      [
        "ha",
        "nd"
      ],
      [
        "ing",
        "s"
      ],
      [
        "Ġb",
        "ar"
      ],
      [
        "Ġto",
        "ng"
      ],
      [
        "ed",
        "i"
      ],
      [
        "Ġc",
        "up"
      ],
      [
        "Ġm",
        "ice"
      ],
      [
        "Ġl",
        "ay"
      ],
      [
        "Ġl",
        "ock"
      ],
      [
        "Ġl",
        "au"
      ],
      [
        "id",
        "er"
      ],
      [
        "Ġd",
        "es"
      ],
      [
        "Ġd",
        "ish"
      ],
      [
        "Ġd",
        "ead"
      ],
      [
        "Ġd",
        "ark"
      ],
      [
        "ll",
        "e"
      ],
      [
        "Ġf",
        "ly"
      ],
      [
        "Ġf",
        "ill"
      ],
      [
        "Ġf",
        "ear"
      ],
      [
        "Ġf",
        "ast"
      ],
      [
[...]
